<unk>
<s>
</s>
▁t
▁a
he
in
▁the
er
on
▁s
00
re
▁o
▁c
▁w
an
at
ed
en
▁b
▁f
or
is
▁p
it
▁in
▁of
ar
es
al
▁m
▁an
▁d
▁and
as
ic
ing
ro
▁00
▁h
ion
▁to
▁l
''
ou
il
▁n
el
ent
▁re
▁g
▁0000
st
le
om
am
▁e
▁th
ol
un
ct
▁*
ad
▁(
et
▁st
ur
iv
ch
us
▁on
▁for
▁was
ly
id
ation
im
ir
▁as
▁is
ig
ce
▁he
ut
ot
▁be
ra
ers
▁''
ow
▁v
ith
▁al
em
ter
ay
▁with
ul
▁j
▁con
▁by
and
▁wh
▁r
ist
th
▁it
ver
▁k
rom
ge
▁ch
os
▁at
her
▁de
um
▁un
▁com
▁that
▁0
▁pro
ac
est
▁se
op
▁or
▁"
ri
▁from
od
av
ain
ity
res
if
oun
up
oc
▁ne
ill
ies
qu
se
art
▁his
ate
ab
ian
pe
ud
ich
0000
▁are
▁y
ber
ort
all
▁ex
ard
igh
▁0000,
ld
ere
ore
ak
ag
ess
ant
ap
▁ro
▁le
▁were
ub
ated
▁sh
ia
ect
ip
ive
▁pl
ial
▁en
▁ar
gh
ary
ment
ov
ie
ine
ast
▁which
ell
der
▁us
ame
ong
ost
ure
ical
our
ish
cl
ire
▁wor
ust
uc
ther
▁comp
▁cl
og
ight
▁af
),
▁this
▁not
so
mer
000
▁0000.
ran
▁had
▁ad
▁000
ome
▁whe
▁ap
the
▁(0000
▁sp
ions
▁new
pt
ous
end
▁man
ear
age
▁mar
ave
ord
pl
per
▁also
ry
.0
are
iz
rit
ass
▁cont
▁part
▁ac
ack
▁fir
▁int
▁ser
ign
▁ab
▁all
▁has
man
▁ra
▁sc
ue
▁first
ide
▁its
ount
ok
▁res
▁one
wn
ice
▁per
▁but
▁comm
▁their
ater
▁can
▁tw
port
ult
ib
▁el
▁col
own
ally
'',
▁–
ond
ition
ations
).
land
▁year
▁after
▁ind
ime
ff
act
▁other
ence
ens
▁who
ric
und
ile
▁have
ren
ang
ree
ould
▁rec
▁te
hed
▁im
uct
▁bec
over
clud
▁su
ach
▁ag
ory
▁they
ates
ph
▁inter
out
old
▁dis
ugh
▁pr
▁her
▁two
▁pres
,000
ke
fer
▁bo
▁includ
for
▁cent
▁fe
ks
one
ational
uring
ite
▁there
▁me
▁des
ely
ade
ace
te
▁sch
ound
▁been
▁pre
we
amp
ne
▁up
ents
ited
▁act
ubl
ts
▁out
aw
▁jo
.0%
ood
vel
▁ev
▁sy
▁she
▁over
▁co
▁play
able
ose
ces
▁i
▁par
ild
▁gro
ough
▁when
▁bl
▁pol
▁off
ican
▁qu
ug
ool
ors
▁under
▁fl
▁ph
▁car
▁tra
▁spe
▁gen
▁more
ased
▁count
les
orn
ied
▁reg
▁pe
▁we
ase
iss
cess
▁00,
ind
ted
▁during
▁into
▁some
▁am
▁sup
▁sec
▁eng
ath
▁war
ance
▁nor
ivers
▁most
▁amer
▁ed
▁may
▁ear
▁time
ons
▁att
ember
urn
▁bet
▁mus
▁cons
▁kn
ve
▁ass
▁tr
▁-
▁pop
ress
▁ma
ward
ake
io
▁sou
ings
ton
▁loc
als
▁bro
▁inc
ouse
ft
▁no
way
ms
▁city
▁school
▁years
▁br
hip
▁bu
▁serv
gan
▁gre
▁char
▁op
red
ail
▁used
oll
▁em
▁prod
▁publ
ious
▁so
ans
▁only
▁min
ck
▁sub
▁him
▁work
▁would
ular
▁air
▁fil
▁world
▁such
aus
▁rel
▁will
▁gr
ep
rans
▁how
''.
oth
▁thro
▁(0000)
rib
▁po
ident
▁stud
ween
▁acc
▁fin
▁mon
▁form
▁med
olog
▁high
ick
amil
▁between
cial
ict
▁house
▁american
pro
gr
▁univers
▁many
▁dist
▁than
ics
▁trans
ince
ative
▁lar
▁through
▁z
ix
ished
tern
▁do
▁rem
ten
ating
che
▁rep
ins
▁num
▁ter
hn
form
▁gu
▁gener
ral
ron
▁prov
ale
ys
int
▁elect
▁li
ual
▁where
▁inst
▁ret
▁**
overn
▁mod
ced
▁00.0%
iel
▁later
ities
▁these
ork
att
▁dr
▁town
▁sm
ury
▁govern
▁states
ific
▁about
▁united
▁again
▁mov
ollow
▁made
▁def
ement
iver
▁cap
ier
ision
ject
air
▁met
▁three
▁while
.00
ction
iet
▁call
▁u
▁state
–0000
ower
▁cre
▁follow
▁them
▁art
br
stem
▁ent
▁found
▁inv
▁end
▁0000)
fore
▁hist
ann
▁record
ople
pos
▁north
▁str
son
▁then
▁national
".
",
▁set
ines
▁well
ah
ames
▁known
ern
az
ever
▁sur
▁colle
▁system
ert
▁famil
ev
▁bel
▁second
uary
ife
▁group
▁south
▁people
▁university
."
velop
ery
ulation
ob
▁age
▁film
▁oper
its
iam
▁pos
▁add
ss
▁main
▁became
ism
round
led
▁being
▁however
emb
igin
ather
▁john
ution
▁sing
▁fran
▁including
▁rele
▁both
▁alb
▁develop
ise
▁day
▁dep
uction
▁sim
▁show
▁lead
▁dire
oy
▁est
cc
cy
ature
ived
ley
▁ob
fl
ield
ures
▁sa
ger
▁aut
con
▁four
▁dif
ved
▁soc
▁sever
▁origin
ty
▁const
▁appe
ute
ually
other
▁dec
ason
▁arm
▁var
▁bar
▁ger
▁nov
▁writ
sh
▁series
▁compan
▁brit
▁cor
iving
▁before
ists
ock
ik
▁old
▁#
ause
▁rev
iew
▁own
▁area
▁any
▁team
▁number
min
enn
▁ge
▁sl
▁king
▁sign
elf
▁use
til
rol
▁long
▁la
ient
cept
ank
▁name
▁music
▁ext
▁since
ized
▁mil
inn
▁$
▁county
▁*''
▁government
▁commun
▁intern
▁called
▁direct
▁maj
ract
uro
▁population
▁exp
▁cro
▁album
▁until
ales
urch
▁cr
▁red
uch
▁public
uss
▁pers
ired
▁early
▁av
▁design
▁har
▁back
▁0,
▁several
ars
▁ann
▁offic
▁land
imes
▁line
▁german
ina
ful
▁go
▁sw
ered
amed
▁mat
ined
▁west
ible
▁ty
▁major
▁against
▁jun
lish
ared
ained
▁book
▁cur
▁comple
▁port
ural
ull
get
ically
▁contin
to
▁open
▁(0000–0000
▁child
▁eff
ives
▁val
ional
▁suc
gram
▁cour
ility
▁dem
▁song
ium
ange
ting
arch
uced
▁ever
▁family
ket
▁ke
ple
▁same
ister
▁law
ues
oot
▁if
▁mill
▁support
▁class
▁gl
ball
▁'
▁each
▁band
▁0,000
▁cal
▁vers
▁program
▁run
▁differ
els
ried
▁near
▁game
▁bus
▁award
▁.
▁che
▁polit
▁div
▁ir
▁company
▁leg
ird
eter
bo
raph
rist
▁hel
▁organ
ash
▁small
xt
erv
▁build
-00
co
ital
▁general
▁aust
aking
▁island
pect
▁british
▁river
ark
▁former
be
▁york
▁pass
por
▁century
▁euro
▁pat
▁occ
by
▁because
▁stre
ology
▁following
▁mid
▁disc
gest
▁adv
▁:
▁jan
▁spec
▁tel
de
ica
ants
ission
▁charact
▁camp
▁great
ble
▁0.00
▁ins
ided
ages
▁househ
ged
though
▁head
▁ii
▁ju
▁result
▁rad
▁del
ains
▁park
com
▁tre
ai
▁now
▁power
ued
bert
▁lit
me
▁those
ove
ised
▁fre
▁partic
▁president
au
▁party
▁along
ling
hen
yn
ped
ilt
▁did
▁rom
▁return
▁down
▁ep
▁order
▁mag
▁&
▁rece
▁start
▁home
▁could
▁0.0%
▁desc
–00
ator
tle
rict
▁season
▁hum
chn
ene
day
▁east
ians
▁europe
▁ste
inc
▁life
▁church
▁es
▁just
▁success
▁right
▁released
▁present
ink
▁although
▁often
ane
yl
▁bas
eng
▁bre
rent
ugust
▁stand
▁memb
▁station
▁coun
▁tit
▁international
▁began
▁batt
▁conc
▁around
ris
▁rail
ode
▁prot
▁canad
ps
ices
ril
▁prev
▁christ
ended
▁ref
▁common
ats
▁large
ham
oci
hor
▁like
▁je
ets
▁prof
ize
▁prom
▁another
▁water
▁oct
▁consid
▁lo
▁sk
▁march
ret
▁app
ience
ober
ptember
▁trad
▁sol
▁place
▁(0
▁non
ony
angu
▁local
▁rest
▁best
ior
que
▁due
▁appro
atic
▁members
▁though
▁last
▁way
ott
▁phil
▁requ
▁$00
ax
rench
▁x
▁august
▁english
▁service
▁fem
▁vol
▁cond
▁history
▁even
ek
resent
sc
▁far
▁associ
gy
ague
rop
▁equ
ments
aving
na
▁techn
ival
▁wom
ner
ently
ring
▁er
omet
▁road
▁june
ille
▁vis
▁named
▁estab
▁within
▁vill
▁september
▁black
aced
▁allow
▁death
▁household
▁incre
▁histor
▁college
▁white
aim
cem
▁short
hes
▁based
omin
apan
▁left
▁make
▁fore
▁accord
▁mer
▁(00
▁control
▁won
▁october
iod
▁different
▁july
▁person
▁post
▁still
▁arch
ides
▁children
bs
cember
par
▁top
▁dra
ll
idge
ately
▁january
ively
▁living
▁list
▁pri
iety
▁hand
▁langu
aster
▁report
▁french
wh
▁squ
▁april
ondon
▁william
▁every
▁lab
▁press
▁club
▁among
▁geor
ified
▁very
▁ang
▁include
▁pa
▁built
▁much
▁you
ford
ily
▁(''
▁addition
iven
ograph
▁army
ality
gen
▁foot
▁mo
ien
let
▁fact
▁six
-0
▁care
ster
▁austral
▁champ
▁my
▁refer
ention
ese
med
itions
▁ant
▁net
▁lat
▁conf
▁located
▁event
▁november
▁december
▁japan
-0000
▁period
▁tri
▁character
▁tem
▁crit
▁played
iness
▁conv
▁son
▁engine
▁district
▁original
▁london
ler
▁according
ards
▁league
ness
▁milit
▁took
af
▁single
ney
▁manag
rod
▁sen
ization
▁mount
sp
▁represent
ship
▁effect
▁men
▁five
mon
cil
▁repl
▁what
▁stat
ino
li
ody
ially
uck
read
eder
▁poss
▁nort
▁author
estern
▁$00,000
▁member
▁said
hing
▁iss
▁exper
▁import
ief
▁educ
▁field
▁cult
ze
▁expl
▁fun
▁turn
▁country
akes
conom
▁ship
▁gra
▁00,000
bur
▁youn
augh
▁times
bruary
▁beg
▁special
▁held
ored
▁center
ata
▁late
▁current
ample
▁hol
▁afric
ries
ald
▁dav
▁roy
ilar
▁led
▁*0000
▁sum
▁resp
ning
▁hy
▁popular
▁lim
▁rock
ma
▁using
▁published
▁project
▁nav
▁aver
▁included
alth
▁command
▁bra
tal
▁vict
▁million
▁conn
▁third
ves
▁los
▁inf
mar
▁(0000–0000)
▁process
▁hal
▁mor
gress
▁econom
ec
work
▁street
▁vi
ured
'')
▁hen
▁development
▁aff
ining
▁eas
▁february
ung
▁court
▁chang
▁kill
▁profess
▁attack
▁star
▁bor
▁telev
▁central
▁broad
anc
▁similar
▁point
▁infl
▁fr
▁win
▁fur
ument
▁rese
ected
▁constr
▁test
lo
raft
ivid
▁light
▁fac
▁version
▁social
▁sold
▁cast
▁det
▁cle
▁business
▁san
▁military
ches
▁mot
urs
▁describ
▁ren
cent
▁prim
ection
▁perform
ration
▁building
born
ius
▁indust
line
▁force
▁depart
uk
▁russ
side
▁instit
epend
▁income
▁level
▁hig
ases
▁television
▁side
ama
alk
▁example
▁modern
▁dev
pg
▁individ
▁received
▁political
empt
▁council
oph
ae
▁0.00%
▁init
▁few
ison
▁(0000),
▁player
mit
▁sal
▁average
▁vot
▁miss
ven
▁appear
riend
inning
▁various
▁capt
▁tro
▁bur
bor
▁final
▁role
▁become
posed
uted
▁community
▁hall
▁given
▁claim
ones
.,
▁imp
▁games
▁pal
▁cir
ges
▁month
▁civ
▁father
▁sit
ett
▁rich
▁good
▁england
▁born
▁view
▁00%
▁comb
ories
aren
▁gold
▁battle
ertain
▁royal
▁union
gether
▁together
▁introd
self
▁word
▁vir
▁epis
▁mass
dom
▁western
▁typ
ements
▁tradition
▁cross
cle
:00
lished
▁without
▁served
yle
ele
▁human
▁real
ots
▁inform
ering
▁cover
▁came
ploy
▁radio
▁feature
lin
▁republ
▁clos
▁champions
▁market
▁women
▁grand
▁independ
▁village
craft
▁need
ox
ront
▁ital
jpg
▁invol
▁production
hern
▁less
ming
▁having
▁super
osp
▁compet
▁free
▁dest
go
▁file
▁football
ray
iding
sk
▁region
▁nat
▁cat
olution
▁beh
ript
▁low
ara
ays
▁deb
▁language
▁mark
ex
▁base
uce
▁bill
▁perfor
amer
▁further
ched
▁influ
▁established
▁story
▁ve
row
▁don
▁take
ape
vers
cast
▁considered
▁0000),
less
▁mem
xim
umb
▁civil
▁roman
▁hon
uel
▁feat
aint
adem
▁compos
▁next
▁ber
▁read
▁hill
aining
▁mult
▁research
▁somet
▁previous
▁tour
▁office
▁division
▁announ
▁created
▁activ
▁cens
▁appl
app
▁married
ops
▁particular
▁never
▁bi
▁minister
▁di
▁ill
▁attempt
▁space
▁james
▁died
aken
ither
▁fire
▁cou
ana
▁arg
▁uk
▁0.0
▁official
▁full
▁que
▁title
▁students
urb
▁works
▁median
▁george
str
ville
▁du
of
▁dou
▁pract
▁hous
▁important
rote
▁mich
ably
thern
hod
▁produced
▁households
▁sent
▁ident
▁sym
▁northern
inted
▁friend
▁den
▁product
▁cy
wards
ency
most
▁feder
▁der
▁caus
rest
orts
▁phys
▁academ
▁fall
▁young
▁society
▁commit
field
▁ten
dle
▁brother
▁america
sequ
eum
▁green
off
pr
itar
▁host
▁moved
▁site
▁coll
▁mal
▁sel
▁canada
rew
▁case
▁god
▁0000–0000
▁total
▁census
▁plan
▁days
amb
▁forces
▁sound
▁,
▁lou
ogn
▁priv
▁should
wor
▁live
ways
▁mun
▁thom
▁sug
▁heav
reek
my
▁term
▁france
▁ide
▁southern
▁night
▁older
▁wind
▁european
▁interest
▁decl
▁areas
▁sil
ached
▁wood
▁went
▁mc
▁museum
▁usually
▁avail
▁education
▁admin
aff
ological
▁size
lex
▁position
▁written
▁wrote
▁performan
gre
eth
▁must
▁proper
ross
wood
ael
▁cop
▁others
▁sat
ule
▁lake
ctor
▁dam
▁body
▁anim
▁exist
▁mater
▁grad
utes
▁lib
▁services
▁race
▁continued
▁david
ha
▁developed
iforn
▁championship
▁jud
ending
▁belie
den
iment
▁indian
▁once
bl
▁cost
▁does
play
▁mart
▁struct
ints
▁coast
▁—
▁hold
used
omb
nd
▁paul
▁see
▁front
▁grow
▁00-
ifornia
ta
▁model
▁vide
▁invest
▁lost
ead
▁(0000).
▁career
▁earl
▁defe
▁constit
ination
pan
ences
olic
▁hor
▁himself
▁relig
▁0000–00
▁fail
▁separ
band
▁sour
▁offer
▁half
▁relations
–0
aper
▁fort
▁produc
gin
▁species
▁science
▁aircraft
▁kingdom
▁treat
▁rul
uf
▁little
▁mean
▁hit
ying
idence
▁appeared
▁available
ico
▁board
▁ground
▁jour
aut
▁california
▁mur
ples
▁commission
▁strong
iation
▁records
▁fund
anish
sy
▁secret
▁largest
▁election
▁instr
▁upon
▁families
▁information
new
▁sam
ping
▁proble
▁00.
▁ver
▁hard
ances
▁pur
itor
cher
▁bank
▁week
▁formed
ka
▁association
▁jack
uit
icle
▁square
▁find
▁making
la
▁comput
▁method
▁announced
kn
▁jew
▁emp
istic
▁tur
▁circ
west
▁mac
▁returned
jo
rap
▁seen
ense
▁express
▁network
▁ball
nal
erson
▁female
▁sun
▁pot
▁suff
ucted
cer
▁department
▁director
ago
▁voc
▁route
▁sea
ication
ows
▁robert
▁aud
▁desp
▁centre
▁charles
▁cup
▁administ
ament
ators
▁originally
▁material
burg
▁appo
▁started
icip
▁pet
▁wife
vir
ocr
ids
▁railway
▁systems
hem
▁promot
cially
▁thus
▁throughout
▁liter
▁parl
▁exec
arn
ware
▁health
ours
▁commer
▁middle
▁australia
▁cell
iction
cis
▁standard
roy
▁fight
▁laun
itive
▁mic
ential
aign
▁opened
,"
▁bay
▁tor
▁arr
..
ificant
▁founded
here
▁wall
▁00.0
▁meet
▁mother
▁anc
▁employ
ability
▁big
ification
ique
key
▁hot
▁doc
▁;
orm
▁wil
▁anal
▁impro
▁germany
▁obs
▁either
▁schools
▁pen
apt
iament
▁eventually
▁novel
▁sn
ey
▁wat
▁recogn
▁(0000–0000),
▁fle
time
▁type
bc
▁put
▁news
▁campaign
▁get
▁significant
anted
▁successful
▁phot
▁chief
▁japanese
▁stri
ensive
-000
▁princ
▁bal
▁eastern
▁liber
▁00.00
▁recorded
▁agre
▁earth
▁bir
▁african
▁tom
▁step
▁described
▁gun
▁parliament
▁vo
ership
▁hom
▁(000
▁christian
▁wid
hel
▁range
men
▁video
▁instead
uals
▁rather
ipp
▁india
ened
▁across
▁dut
▁access
▁object
▁despite
oney
ades
▁fest
▁release
▁suggest
not
rie
ole
▁cath
▁pain
val
ergy
ctions
aces
▁tex
▁taken
▁enc
▁polic
▁round
▁key
ceed
▁lower
▁trib
isc
▁becom
hib
▁eight
▁working
▁police
rian
ising
▁territ
▁rob
▁study
▁below
stand
fe
▁review
▁groups
▁love
▁units
aps
gl
▁et
▁episode
▁sometimes
▁guitar
▁native
year
ls
itz
▁rights
▁construction
▁ach
▁daugh
inese
▁know
acy
ude
▁thomas
ishing
▁mel
ellow
▁sem
▁sus
▁federal
face
han
▁entire
▁capital
▁frequ
▁today
▁countries
rary
▁style
▁airport
▁followed
▁magaz
▁transport
berg
elling
▁mary
▁books
▁cit
▁township
▁0.
head
▁bridge
asing
isl
▁movement
▁canadian
ula
▁above
inal
▁fa
aker
▁data
road
▁chann
ensity
ca
▁track
▁months
▁past
▁change
▁municip
▁performance
▁pan
▁china
ams
▁designed
ume
outh
▁("
ston
iers
ania
▁washing
▁hus
▁contrib
▁discover
ply
ography
ym
▁broadcast
▁theat
▁elected
▁lord
onment
▁subject
▁fer
▁henry
▁0:00
fic
▁colon
▁opt
▁seven
▁songs
▁subsequ
▁natural
▁generally
ilities
▁introduced
▁gar
ga
▁events
▁includes
▁louis
oss
▁mach
view
▁males
ught
wer
▁summer
▁features
▁pit
pecially
▁tar
cks
ought
▁ran
▁parts
▁particip
▁cho
atory
▁gir
ita
▁meas
▁fig
▁frank
▁races
aries
▁washington
▁food
▁fut
oviet
▁possible
▁worked
▁richard
▁envir
▁reb
▁reported
▁assist
▁mix
▁joined
▁females
▁log
▁democr
▁consist
icated
▁remained
▁let
▁almost
▁ben
▁km
ications
▁bud
▁pay
▁dig
▁chinese
▁fav
▁close
▁away
▁princip
▁saw
erous
▁committe
▁tv
▁occur
▁replaced
▁cut
▁ut
▁training
▁neg
uation
▁private
▁respect
▁governor
▁alex
▁surv
▁ox
▁deter
▁foc
▁viol
▁look
▁accept
ari
ores
▁image
▁blue
ope
▁action
▁transl
amous
▁points
ux
▁rank
▁michael
▁hun
▁theory
▁say
▁least
ky
ician
▁help
▁gave
▁leading
▁performed
▁independent
▁regular
imate
itect
▁higher
▁travel
▁respons
arily
aves
▁ham
ba
▁angel
▁function
▁congress
back
tt
▁oppos
cing
ems
▁able
ush
▁match
▁account
▁featured
ida
▁mad
oms
oor
▁acqu
▁achie
▁conserv
▁000,000
like
▁fif
▁certain
mp
▁regard
▁empire
oon
")
chan
▁pac
▁cand
▁itself
▁connect
nes
lect
▁soviet
.''
▁valley
▁anti
▁brown
▁0000:
▁scott
ateg
▁card
mal
▁peter
▁soon
sec
▁provided
▁stage
▁especially
▁leader
▁media
don
ufact
▁republic
ving
▁individuals
enth
▁traditional
▁0–0
ya
▁architect
▁prem
▁flight
▁dom
can
▁corn
▁critic
▁contract
▁mex
▁nar
▁ze
iting
utions
tic
ij
▁foreign
▁“
ference
▁killed
▁magazine
▁distrib
▁economic
▁australian
▁hosp
idents
▁outside
▁eth
▁players
ground
igned
ander
▁scient
▁beginning
▁imm
▁manufact
▁color
▁navy
▁ce
▁trade
▁energy
utive
▁tax
▁sex
▁journal
medi
rick
▁stra
▁density
▁whose
▁institute
ont
▁quest
car
aged
▁means
▁bran
▁technology
▁studies
▁syn
▁plat
▁jose
une
▁spanish
ror
▁corpor
well
▁husband
▁domin
ste
▁professional
▁section
▁smith
▁committee
▁complex
▁provide
▁dan
▁ca
▁industry
▁francis
▁catholic
▁appointed
bour
▁poet
▁paris
▁daughter
▁ara
airs
enue
▁prior
▁q
▁prime
▁deal
▁playing
▁commercial
▁000,
oper
▁plant
right
▁environment
▁bow
ria
▁limited
lit
▁primary
▁added
▁library
▁festival
▁gard
hood
lands
▁exam
▁actor
▁mont
▁accom
▁maint
▁except
▁victor
▁occup
har
tra
ength
▁future
.)
▁unit
▁esc
▁ire
▁bat
ked
▁arts
aching
▁operations
dr
col
▁soft
▁famous
▁forest
ires
atives
▁tim
▁virgin
▁completed
▁emb
▁russian
▁shows
▁destroy
hest
see
▁come
▁too
▁brought
▁van
olf
asion
▁academy
▁speed
▁self
▁concept
▁minor
▁culture
▁emer
gu
▁required
▁neigh
▁wal
ends
▁cam
▁prop
rup
▁involved
▁italian
▁assemb
▁edition
▁multip
▁sports
icles
urity
▁via
▁veh
ension
odes
▁legisl
ike
▁sand
ging
▁plann
▁rap
po
▁abs
▁ly
▁00.00%
▁cele
edy
▁saint
hy
bit
rial
orial
▁mission
bers
▁altern
▁currently
king
▁films
▁allowed
etic
wing
arian
▁province
▁clear
uz
▁0000).
▁terms
▁revolution
▁collection
▁bul
▁channel
▁organization
▁approxim
ned
▁border
▁relationship
rel
▁remov
▁cd
▁break
gon
▁cust
▁computer
▁management
▁psy
▁schol
▁chap
▁pun
▁sir
orpor
▁ban
▁lines
▁staff
▁mountain
writ
iff
▁characters
▁adop
ream
lant
▁philos
ii
▁stated
▁stop
clus
ram
▁thought
▁ireland
▁cred
▁dyn
oke
ites
▁changed
▁earlier
ny
▁drum
▁pil
▁ord
▁africa
▁medical
▁ha
spe
asons
▁cab
▁fair
ishop
▁queen
▁sett
reen
▁ey
ee
▁writing
▁concern
lim
ada
▁chic
▁singer
tar
ficult
known
▁reached
▁greek
▁prob
▁penn
▁heart
based
anded
cul
▁individual
▁ess
hol
▁nation
▁islands
▁ast
no
▁cra
▁signed
▁associated
▁difficult
▁loss
rael
▁hospital
▁mos
▁spring
▁purch
▁text
▁transfer
▁chem
▁master
▁referred
olk
▁spread
▁prince
reat
▁increased
ibility
▁behind
▁historical
▁structure
▁pie
▁spir
▁alone
ios
▁code
put
▁finan
ump
▁temper
▁swed
▁theatre
0,
ingu
▁establish
▁decided
lying
▁0000-0000
enced
▁box
▁/
aur
uments
▁lay
▁writer
▁document
acher
▁operation
ucle
▁inte
▁musical
urban
▁religious
bon
▁money
▁student
▁glob
▁inn
alled
▁pacific
ift
▁chart
▁texas
▁additional
▁celebr
rd
▁heavy
▁fourth
ady
▁carol
▁nomin
▁pow
▁personal
▁majority
erve
▁chair
hab
▁larger
▁consider
▁bad
gree
▁walk
ero
▁emper
▁male
board
▁ancient
▁names
▁prison
hi
elled
ini
▁pred
eral
▁here
▁candid
▁constitution
▁0-
▁paren
▁surround
▁collect
▁particularly
▁studio
▁mechan
iences
ota
ready
▁complete
▁settle
▁termin
▁policy
▁honor
inct
▁related
▁lack
ask
war
▁boy
▁gall
▁whom
ili
▁changes
▁placed
▁gal
▁bass
cont
▁woman
aled
▁towards
▁equip
▁caused
umn
▁movie
▁pra
▁location
▁source
with
▁birth
▁housing
▁=
▁bound
▁psych
▁security
uated
mission
▁britain
uff
reme
▁oly
▁iii
oid
▁flor
▁pict
istan
▁taking
▁inj
elves
aring
▁stone
▁$00,000.
▁keep
▁element
rad
▁evidence
lor
▁longer
▁active
▁sequ
tv
▁forms
▁cities
▁amount
▁numerous
vert
▁better
▁ult
...
▁olymp
▁might
▁issue
▁exc
▁subst
▁previously
▁sant
▁iv
riage
▁mr
▁rate
▁react
pa
▁highway
star
sw
▁highest
▁practice
▁train
▁percent
▁labor
▁bomb
▁peace
▁buildings
▁blood
▁oil
▁move
▁bene
''),
▁irish
ken
▁uses
▁our
ques
▁nature
bol
▁ens
rated
da
▁legal
part
porary
▁quick
▁cases
▁initially
▁officer
▁scot
▁always
ado
▁awards
▁companies
▁already
▁investig
met
abor
▁castle
▁chicago
vey
▁joseph
▁lie
▁ris
▁israel
▁meaning
▁tal
wa
▁teams
▁emperor
▁magn
▁degree
use
▁reve
aland
bre
▁micro
▁artist
▁immedi
▁remains
▁squad
▁ur
▁influence
▁date
▁martin
▁interview
▁programs
▁annual
▁course
asc
▁cause
▁ol
▁stations
▁surface
▁recent
▁awarded
mselves
▁electric
itch
▁kore
tered
ider
atively
ulf
▁words
▁dead
▁nucle
▁burn
ify
▁themselves
▁link
sm
▁dark
▁runs
▁fel
▁kar
▁wild
▁numbers
za
▁campus
change
▁finally
▁hours
▁progress
rem
isher
▁brand
plement
▁regional
▁secretary
istry
▁newsp
▁approximately
▁lik
ters
▁value
▁rule
▁seat
▁upper
▁***
▁believed
▁bc
▁amb
▁require
erved
rying
▁bird
▁stad
olit
▁haw
inary
▁lived
american
inet
▁gas
bridge
▁autom
▁rat
town
▁tun
▁quar
ds
▁length
▁guard
▁directed
▁ended
oo
▁closed
bury
win
ona
eg
▁financial
▁atlant
▁happ
▁give
▁typically
▁languages
▁specific
▁greater
ola
▁contains
onstr
lam
▁captain
▁appears
▁separate
▁stock
inent
rief
house
▁flag
▁therefore
▁vocals
▁cer
▁issues
▁italy
isions
izing
▁running
▁bell
▁variety
▁increasing
ties
▁problems
uth
▁complet
rich
▁owned
▁actress
▁miles
iance
▁jer
▁alle
▁historic
▁increase
standing
▁territory
▁troops
▁0000;
▁edward
▁weap
▁administration
▁mess
▁electron
iant
cript
uge
▁someone
▁mostly
nel
▁farm
dra
▁shown
▁recording
▁create
mitted
ros
▁ec
mod
▁property
▁conference
▁forced
▁claimed
▁residents
▁railroad
▁continu
▁da
ena
▁drop
▁remain
▁angeles
▁opening
▁display
▁columb
▁citiz
▁defeated
▁mile
oura
▁discuss
▁motor
▁integr
▁prevent
▁paper
▁jim
▁necess
▁incorpor
▁results
▁passed
rast
▁manager
▁detail
▁pack
▁winn
▁ho
▁appearance
▁indic
▁qual
▁exhib
famil
▁zealand
/00
▁latter
▁status
▁focus
pected
▁mir
▁disp
▁asian
▁$0
▁estim
▁launched
ura
▁cart
▁jewish
▁nearly
light
▁industrial
▁chall
▁ships
▁ven
gar
ote
▁kh
▁..
▁democratic
▁visit
▁room
ulated
▁latin
▁elements
ker
▁face
▁flow
▁engineering
ington
▁confl
wide
▁block
▁republican
vi
▁constant
sch
▁professor
▁noted
mark
▁target
▁assembly
▁enough
▁elev
ffic
▁foundation
ricult
▁virginia
▁nine
onse
enc
▁arab
▁whether
▁stadium
▁arran
▁screen
▁dog
ledge
▁crew
▁thr
▁supported
▁baseball
▁cas
▁wide
▁poor
ysis
▁takes
▁webs
▁lic
▁done
▁protest
▁mathem
▁ath
▁wa
▁georg
▁rang
▁proposed
▁dise
more
eks
▁producer
▁smaller
▁authority
▁brief
▁your
▁got
▁insp
mir
▁directly
▁path
▁artists
▁operated
gypt
aded
▁hop
▁metal
▁reason
▁ded
▁ba
▁era
stra
sen
▁decision
rey
awa
▁politician
▁goal
▁agricult
ette
▁medal
▁nations
ression
▁article
▁mention
▁cultural
▁obt
▁letter
▁coach
▁laws
▁mexico
▁die
▁fleet
▁becoming
aches
▁sav
▁deliver
▁provides
eds
▁contem
bi
▁executive
▁deep
▁finished
resp
);
▁reform
▁duke
iano
igan
▁shot
▁drug
ja
▁beach
uries
▁offered
▁corps
▁subsequently
▁stories
pose
▁problem
▁products
older
itation
▁winter
▁conditions
▁lee
▁produce
▁commonly
▁lin
▁observ
▁imper
▁spirit
och
▁silver
▁racial
▁saf
▁iron
azz
▁diss
▁makes
▁activities
ands
▁pap
ylv
▁failed
ua
oned
ously
▁bab
▁victory
▁effects
▁branch
▁bon
▁multiple
▁rot
ala
▁naval
sa
bro
▁debut
itude
▁competition
▁web
▁whole
▁protect
oe
▁address
▁justice
▁carried
▁physical
ips
▁spent
▁infant
ano
▁vote
▁places
▁growth
▁types
▁houses
▁oh
▁makeup
char
down
ils
▁software
▁fra
▁00–00
▁double
▁friends
imin
ech
▁ib
▁000.
▁(0000-0000
iles
▁idea
▁weeks
▁experience
chester
list
▁yet
▁philosoph
gers
▁brig
▁marriage
▁label
▁response
▁egypt
isation
▁starting
▁wel
ental
▁voice
ani
zil
▁ice
▁digital
▁nick
arm
▁interp
▁beat
▁mob
▁anth
▁register
▁wrest
▁coal
rier
▁spain
▁levels
▁ic
▁dance
▁going
ugg
ki
▁sac
▁meeting
▁$000
▁turned
▁luc
uate
▁resour
▁widely
▁comment
▁doctor
▁machine
mas
ellig
▁attract
▁stan
▁memorial
▁urban
where
▁liberal
add
▁bob
arters
▁mcc
▁dun
astic
▁commander
▁florida
bar
oma
▁peak
agn
▁leaving
▁kind
▁counter
▁highly
▁murder
ylvania
fect
▁mayor
▁freed
▁map
▁temple
ols
▁portug
▁entered
anced
▁pressure
▁hur
gs
▁jul
▁enem
▁notable
kins
▁dutch
▁russia
▁custom
stein
ables
gely
ients
▁bbc
▁prize
▁maxim
▁()
mann
▁winning
▁tower
▁true
▁remaining
▁stars
▁lif
hist
▁sens
▁behav
▁adj
▁corporation
dro
ipl
undred
▁editor
▁scene
▁householder
▁mut
–000
uis
▁bring
▁primarily
▁twent
▁jones
▁crown
iana
oston
▁fellow
▁couples
▁consum
▁oce
▁williams
▁ta
km
rative
▁mind
▁orche
class
▁conver
ella
▁compl
▁nearby
aught
▁carl
fit
ession
▁avenue
▁discovered
▁os
hire
prod
▁likely
rid
shire
▁mainly
▁concert
bra
▁provin
▁elections
▁website
▁initial
ko
▁resist
▁intended
▁bishop
▁threat
▁tourn
oring
▁learn
▁...
▁creek
▁conduct
▁drive
▁sister
▁presented
ersey
▁wales
▁question
▁literature
▁polish
mond
ato
▁pick
va
ns
▁models
▁jes
▁attended
do
gal
je
aily
icient
▁operating
▁von
▁basis
▁ple
▁wars
▁represented
▁rare
water
agon
▁largely
▁volume
▁sport
which
▁stay
▁succeed
▁ring
▁sar
rovers
▁hundred
▁determin
▁plans
▁senior
▁helped
▁000.0
fort
▁responsible
▁inside
▁think
0.
abeth
▁categ
reng
▁johnson
▁tenn
▁symbol
▁ful
yer
worth
▁cars
respond
▁online
ounder
▁cub
wan
):
▁fit
▁sail
▁dial
▁hero
▁tracks
▁ram
▁cry
▁replace
now
▁quickly
book
istics
icted
▁graph
▁rain
▁direction
▁enter
iber
igr
▁tell
▁kenn
▁asked
▁trust
bed
▁girl
mad
▁poly
▁recently
▁hung
▁minutes
▁listed
ees
▁workers
▁wing
▁arms
▁actually
▁soldiers
▁scotland
▁ash
▁dar
▁headqu
rupt
▁towns
▁municipality
▁agreement
illa
▁neighbor
▁controvers
overty
▁adopted
sylvania
▁entertain
▁shar
▁raised
miss
bel
▁thous
▁extended
▁ability
illy
▁share
▁correspond
▁teacher
▁mis
▁intellig
kin
▁serve
under
▁wanted
▁issued
▁und
▁camer
▁poverty
▁officers
teen
▁implement
▁advent
▁brazil
▁brothers
▁municipal
▁told
▁repe
▁defin
aq
illed
▁removed
vement
▁wear
▁vari
▁islam
ault
enant
▁carolina
▁defense
▁apart
thur
ises
▁hab
mun
ws
nam
▁fast
▁organiz
▁concent
▁experiment
thing
▁divided
▁independence
▁rules
overs
▁equipment
▁treatment
▁id
▁jac
▁needed
▁potential
▁quarter
▁global
ji
adel
▁contact
cles
▁les
▁jr
▁albums
enger
▁extra
▁jean
▁jersey
▁immediately
'').
▁instrument
▁prec
akers
▁pennsylvania
ighter
▁quality
▁joint
▁boston
▁partn
▁rapid
▁streng
rical
▁simply
▁jackson
pass
▁medic
▁distinct
ias
▁alexander
▁regiment
▁chairman
stone
nic
set
▁tree
▁bern
nor
▁composed
▁ott
rect
▁adult
▁nuclear
arent
▁consists
fa
ening
▁analysis
wise
▁guest
▁cannot
▁capac
unt
iger
▁illust
▁spect
▁cav
attle
▁note
▁scholars
▁mit
▁albert
ng
▁rose
iro
ills
▁lett
▁wit
▁knowledge
▁budd
anda
▁sources
▁economy
▁versions
▁francisco
what
▁destroyed
▁vice
▁leaders
▁marsh
▁cooper
opher
▁probably
▁store
▁pul
▁rome
▁hispan
uan
▁columbia
tr
▁horse
▁ordered
▁continue
▁fell
ights
▁citizens
▁imperial
▁arrived
▁od
▁labour
olitan
onent
▁parents
▁ell
▁senate
▁assum
▁youth
asty
▁constructed
ivity
▁becomes
▁newspaper
▁opposition
▁arrest
▁sched
▁shop
▁residing
▁score
▁approach
▁plays
▁request
▁sha
▁leave
▁shortly
▁conservative
▁fifth
▁mathemat
▁applied
▁clin
▁serving
▁basket
▁parish
▁ax
▁collabor
▁overs
▁combined
▁mand
▁fish
fin
▁asia
ansas
▁academic
ety
▁cham
ancy
ulations
▁morn
iter
▁rand
▁exchange
▁protection
hl
▁steel
rane
▁prominent
onents
▁scen
▁officially
▁reflect
▁feel
▁measure
onto
▁basic
▁acquired
john
ching
rance
▁parties
▁figure
▁ocean
▁quant
▁eliz
▁powers
▁compared
▁bey
▁fox
▁rh
▁overall
▁featuring
▁resulting
▁contemporary
▁gh
▁favor
▁search
▁activity
▁mountains
▁pattern
▁aer
▁creation
gian
▁sev
greg
▁episodes
sl
mus
▁tele
▁inhab
▁settlement
▁scientific
▁traffic
▁charl
cel
▁covered
pet
▁£
▁golden
▁grant
force
▁shoot
zy
▁renamed
▁memory
▁contest
osh
burgh
▁table
▁critical
▁muslim
▁virt
omm
oul
▁selected
▁aim
▁interact
▁slow
pri
itled
▁affairs
▁page
▁perman
▁uns
▁#"
▁normal
usion
▁comedy
olved
▁scottish
▁kent
▁impact
acing
oration
▁opera
▁oxford
▁reduced
ci
▁estimated
▁mu
px
yr
life
.0/
▁lives
vin
bu
▁daily
▁defined
▁southe
▁price
▁champion
▁reference
▁treaty
ibly
▁script
▁climate
▁premier
reg
▁hotel
▁fix
▁distance
ione
▁jeff
▁sales
▁roll
lers
▁things
▁susp
▁garden
aka
▁disease
▁frequently
▁bol
▁minim
▁distribution
▁recover
ressed
▁infantry
▁swe
▁planned
▁damage
ati
▁letters
families
▁communities
▁relatively
▁metrop
▁split
▁contain
▁accepted
▁giving
▁initi
▁facilities
ón
▁condition
onic
▁bod
het
ski
▁moving
▁anne
▁convention
▁saying
▁leadership
▁serious
rain
▁sher
des
▁simple
▁mom
bec
▁bond
ador
any
mont
isters
▁cerem
▁versus
▁distingu
oman
▁victoria
▁borough
▁viet
▁claims
▁propos
▁ohio
oral
hr
▁agreed
▁comes
▁supreme
▁politics
▁allows
▁andrew
state
▁ga
▁charge
▁prin
▁presence
▁bed
aped
ockey
▁gram
hens
▁combat
izes
▁ontar
rison
▁opp
▁ontario
iy
ding
▁declared
real
▁efforts
▁etc
▁dur
lines
▁signal
▁brook
portun
▁ped
sex
aging
▁grew
▁aband
▁holy
▁trail
▁lew
▁mas
▁purs
▁suggested
▁sense
mat
▁elizabeth
▁fuel
▁animals
▁resulted
resh
▁attention
▁gained
▁hydro
▁solo
▁poland
▁kil
▁reject
▁retired
▁kong
▁confir
▁regions
▁thir
▁*"
gment
from
▁cells
▁fame
utenant
▁belong
▁hispanic
▁alt
▁opportun
▁pp
▁headquarters
▁reach
▁composer
era
▁vac
▁expans
works
iring
ogue
▁internet
jan
▁lady
▁scored
▁diam
▁norm
▁lot
▁attend
▁transform
▁rear
▁captured
cluding
▁classical
ocks
▁trains
▁examples
▁slight
▁advanced
▁occurred
▁surrounding
▁crime
▁athlet
▁managed
▁supply
vd
▁tournament
▁estate
▁greatest
ograp
▁content
claim
achus
▁las
▁fields
enge
▁philipp
▁cold
▁matt
▁basketball
ologist
omy
▁ry
aly
▁format
▁bott
▁talk
▁critics
▁morning
▁alternative
▁mort
▁palace
oted
▁heat
▁pak
▁occasion
etts
▁secondary
▁pier
tw
▁weight
▁mentioned
▁(0000–00
▁completely
▁suit
▁print
law
▁forward
▁freedom
▁hind
pat
▁hands
▁battal
▁dedicated
▁safety
writer
▁fighting
▁lear
▁chemical
▁encoura
▁atlantic
▁programming
▁vehicle
▁beyond
▁sund
▁allowing
onia
▁fiction
▁unique
▁conflict
▁tan
▁conducted
▁tay
oty
▁revealed
▁goals
▁methods
▁sexual
▁orth
ext
▁entertainment
▁eg
▁seasons
▁wilson
▁dynasty
forms
▁sle
▁capacity
▁iran
▁glass
▁religion
▁sciences
▁temperature
ented
▁defeat
▁purpose
rence
▁squadron
▁demonstr
amin
▁convers
▁toronto
▁canal
▁folk
▁unc
iced
▁cook
2).
▁background
ricket
▁subsequent
▁job
▁generation
zer
▁risk
▁seats
kh
▁baron
century
án
inois
,''
▁respectively
▁plants
▁resources
"),
vard
▁suppl
orter
▁positive
▁dim
▁attacks
▁expanded
▁northe
▁candidate
▁suffered
iot
tery
▁sin
▁marine
▁accompan
▁portion
▁chron
▁spr
ses
▁yellow
▁fully
inger
▁necessary
▁billion
icks
▁jazz
▁ford
▁technical
▁formation
▁capita
▁nas
▁kept
▁felt
▁latino
gor
▁speech
▁studied
0)
▁anton
ih
▁presidential
▁hills
▁twenty
▁bure
inity
ube
▁hyp
▁prote
▁dro
▁bron
▁contrast
adelph
sey
▁pope
▁powerful
atures
▁dor
▁notes
chen
▁berlin
▁bit
▁hat
▁recognized
▁materials
inson
▁joe
▁drama
▁centuries
mo
▁expected
▁motion
▁growing
fall
▁rise
iled
▁opposed
▁rein
▁functions
▁identified
▁stor
▁divers
▁kir
▁stephen
▁fal
▁philosophy
▁offers
▁agency
▁iraq
▁matter
▁apparent
achusetts
▁oldest
aming
▁projects
▁votes
▁hay
▁windows
▁compar
encies
▁want
▁paid
▁ts
▁moon
▁column
▁lieutenant
▁metropolitan
▁faith
ras
▁elementary
ounds
▁seem
phy
▁providing
▁00;
▁unlike
▁singles
▁georgia
▁orchestra
▁edge
▁fat
▁beaut
also
▁connected
▁doub
▁comic
▁crow
dney
ali
gi
▁effort
▁frame
▁vess
ima
kes
▁join
.0%)
▁usa
▁+
▁vent
estic
▁0:
adelphia
▁hong
▁marked
▁core
imb
▁advert
mes
▁internal
▁boys
▁aspect
▁resident
▁vehicles
▁theme
▁ign
ordin
▁refused
▁armed
▁granted
▁hockey
▁sab
▁weapons
▁alongside
▁michigan
▁founder
▁confeder
▁titles
▁reserv
▁acting
▁cricket
▁trial
").
▁firm
▁nap
▁oak
▁recomm
▁intelligence
ti
▁reserve
▁naz
▁piano
▁massachusetts
▁prep
joy
▁gives
▁illinois
▁something
▁purchased
▁younger
sup
▁arthur
▁enemy
▁sites
▁tried
▁jur
▁newly
▁vocal
▁jews
iques
▁environmental
▁mixed
▁feet
▁expansion
▁formerly
▁equal
▁architecture
▁cert
▁situation
engers
▁effective
▁ken
▁alliance
▁paint
▁adapt
▁coming
▁falls
eland
▁incorporated
ila
gra
▁publishing
▁exped
▁legend
▁jon
osis
kee
▁meant
▁max
▁facility
▁zone
▁daniel
ifying
▁fans
▁kings
▁cambridge
ographic
▁acts
▁dipl
▁eye
umber
▁herit
▁assistant
▁figures
▁philip
▁transferred
▁lt
▁judge
▁showed
▁astron
▁conqu
▁seek
▁lu
ounded
aya
inem
▁dang
ption
▁institution
▁tend
▁rug
▁says
▁organized
▁mm
▁sell
▁flat
hedral
▁extensive
▁serves
▁learning
ela
will
▁fly
▁principal
▁continues
▁snow
▁py
▁floor
▁nic
▁0000-00
▁survey
▁existing
',
rics
osen
▁spok
▁inspired
▁sud
▁subs
▁performing
place
ira
▁pilot
oh
cs
▁consequ
lar
▁owner
▁impl
▁strugg
▁derived
▁sons
▁rough
▁rural
▁nether
die
phas
▁ultim
▁choice
oln
▁application
▁santa
▁organizations
▁advant
▁solid
▁receive
▁freder
▁supporting
▁chamber
aling
▁rub
▁sche
▁sets
▁sky
ois
▁titled
iat
▁formal
▁classic
▁refers
▁rivers
▁weather
▁heritage
▁introduction
▁rid
▁myth
oir
▁kit
oti
▁priest
▁pakistan
▁animal
▁engineer
haps
▁unknown
▁(0000,
▁attempts
▁attempted
▁na
olis
▁shel
ception
pp
▁engines
▁planet
▁admir
di
▁liver
▁flood
▁han
▁equival
bell
▁else
▁decre
▁philadelphia
ava
▁restaur
▁racing
▁begins
▁mike
▁sweden
western
▁platform
▁ron
▁alph
zo
heim
▁dram
▁medicine
▁scul
▁attrib
▁influenced
▁advance
▁comics
igen
▁mole
▁0-0
▁americans
▁som
▁doll
▁gree
▁draw
▁ok
▁follows
ifically
!!
▁portray
ora
who
iday
▁flying
▁believe
▁exer
▁aid
▁reign
▁taylor
dis
rep
esc
▁ways
▁extrem
glas
▁ranked
▁standards
▁earned
▁swedish
▁scale
▁*0000:
▁strip
erse
▁representatives
▁avoid
▁exclus
▁reading
eman
▁failure
▁piece
wart
▁reports
inter
▁junior
▁positions
▁showing
after
lywood
▁defence
▁advoc
▁trav
eding
ads
▁winner
▁picture
hal
▁kid
aver
▁cris
▁cel
liest
▁creating
▁communist
▁steve
▁literary
cr
▁actions
▁pu
▁rab
▁girls
▁classes
▁horn
hum
▁roles
▁audience
▁northwest
▁alf
asy
▁ministry
dy
▁bes
▁davis
▁wheel
▁phase
▁entitled
ading
gro
▁sides
▁acid
oured
▁belief
▁theore
▁flu
▁00:00
▁succeeded
▁chur
▁invasion
gn
sky
▁settled
▁semi
ulate
▁ethnic
▁fant
ishes
▁spons
▁$00,000,
▁cos
▁worldwide
▁select
▁whit
▁historian
▁officials
itzer
▁electronic
▁applications
▁lewis
general
▁bac
▁resc
▁starring
▁prefer
▁chosen
▁shut
▁twice
▁storm
▁values
▁argent
▁0.00.
ographer
▁hart
▁lies
▁proceed
▁crim
ban
run
▁write
▁wed
order
ancing
▁deput
▁trees
incoln
)''
▁assigned
▁goes
▁poll
▁ideas
aine
▁emphas
▁toward
▁unable
omot
▁objects
▁turk
▁olympic
▁bands
▁clar
▁hosted
world
long
▁achieved
rec
▁kel
▁fine
▁interior
▁ultimately
▁ward
▁gran
▁parall
▁cant
▁korea
▁ros
'';
aret
▁cancer
▁designated
▁netherlands
▁*00
mic
▁writers
▁dropped
▁dry
▁fear
▁sculpt
▁abd
rome
▁launch
vo
▁stev
▁connection
this
bal
bourne
▁narrow
▁occupied
▁containing
▁promoted
▁wave
▁device
▁gate
/0
▁gri
▁lands
▁administrative
pton
▁mig
uled
▁sed
▁existence
▁pros
night
omer
▁shared
▁sty
▁downtown
cluded
▁behavior
▁hour
▁000–000
▁chris
oren
▁limit
top
▁permanent
onym
▁theater
▁resistance
▁setting
▁cow
stream
▁#00
▁wealth
▁actual
urer
▁spot
itors
▁agent
▁maximum
▁demand
▁prepar
▁slightly
▁roads
roll
▁publication
▁guns
come
ru
▁cool
amm
ims
▁corner
▁plot
▁churches
unk
▁bush
▁ll
▁planning
▁properties
▁pair
▁synd
▁identity
ricts
▁ru
▁nominated
▁bag
▁accident
▁leaves
▁pione
iny
▁dub
▁strateg
▁vic
▁cycl
▁strength
▁ray
▁ka
▁doct
▁tank
▁proved
▁bann
iments
eries
▁regarded
astern
▁factory
▁carry
▁tall
uts
isms
▁gil
track
▁waters
athan
▁perhaps
▁enjoy
ami
▁battalion
▁0000–00,
▁typical
▁programme
▁copies
uese
'':
ieval
ropical
uther
▁poetry
▁drums
ruct
▁negoti
▁visited
▁ages
▁ak
▁exact
▁earliest
mine
▁communications
cal
▁respond
▁ancest
ternal
▁causes
▁institutions
▁driver
otic
▁heavily
▁satell
rif
▁merch
▁passenger
▁transportation
▁gain
▁christmas
▁lind
▁cathedral
▁authorities
▁argued
▁cem
▁eag
▁performances
ouri
odox
▁lyn
▁domestic
pson
rine
▁guide
ée
▁couple
▁neighborhood
amic
▁plate
aud
lav
count
▁ny
prise
▁inhabit
▁buried
ipe
een
▁rif
uls
hann
▁shape
▁straight
ucky
▁structures
ogen
organ
weight
▁marg
▁quite
▁decades
▁expos
▁detect
▁multi
▁brain
room
▁carbon
tim
▁birds
▁mist
▁specifically
power
rising
▁#0
▁broke
▁touch
▁harry
▁wrestling
▁constitu
entially
▁leon
▁user
▁lincoln
▁ross
▁occurs
▁ari
zech
▁reasons
▁pieces
▁row
▁sydney
▁bang
▁correct
former
▁clubs
agan
▁convent
din
▁douglas
▁worth
aki
rum
south
▁vel
▁boat
▁retire
▁wr
▁attacked
▁buff
uv
ashion
▁returning
▁fought
▁orders
▁determined
▁colonial
▁negative
▁copy
chers
wick
ho
alty
▁senator
▁synthe
▁merc
▁tag
▁intel
▁tai
▁chain
▁steam
▁converted
▁sax
▁insur
▁ot
▁marc
including
▁notably
▁tony
▁diplom
▁opin
▁jesus
enna
▁begin
▁medieval
equ
ni
▁representative
▁)
▁descript
icit
▁bear
▁holds
▁interpret
ju
▁0%
ucing
▁studios
▁bot
▁matches
▁ones
▁locomot
▁controlled
sis
▁translation
urt
▁barb
▁possess
▁easily
rim
▁bull
▁teaching
omen
▁howard
▁gang
▁facult
▁entirely
adow
▁ore
▁publisher
▁techniques
▁brigade
▁hair
unte
▁onto
zen
▁sought
▁districts
▁tail
▁dvd
▁fict
▁rival
▁ton
▁orient
▁visual
▁fan
point
▁phen
▁obtained
▁maria
▁universe
▁gord
uing
pol
▁aqu
▁evolution
iversary
▁southeast
▁holding
▁championships
▁universities
▁needs
umin
▁affili
▁auth
'.
▁circuit
▁heard
▁:*
▁sixth
nesota
hu
▁lov
but
▁reduce
▁0''
umes
▁fro
ighth
▁ending
▁opposite
▁bought
▁az
▁killing
may
east
▁portuguese
▁contained
angel
burn
gency
▁strike
▁agricultural
▁situated
▁bapt
▁archae
▁appearances
▁expedition
▁arc
▁vary
eed
iar
▁depend
▁sequence
▁recon
▁employed
▁bou
▁height
aska
mel
▁nothing
▁mast
anes
▁combination
vis
▁painting
▁bureau
▁ow
▁calcul
▁developing
elve
▁miller
▁lect
aga
orders
▁pear
▁hav
▁abandoned
▁documentary
▁communication
▁unif
igation
▁improved
▁incident
▁mah
ić
sel
gas
▁sie
▁stores
▁universal
▁causing
▁reaction
▁regarding
▁advis
▁audio
▁kr
una
▁anniversary
▁hits
▁catal
▁importance
▁humans
▁budget
▁grade
inder
▁deploy
▁banks
uting
fully
▁ends
▁approved
▁substant
▁rugby
pool
▁tu
▁hu
▁neut
orph
▁expressed
▁brad
box
▁maintained
▁pup
apore
▁fab
rock
▁penins
▁accur
▁merged
non
▁cycle
▁losing
grad
dale
▁sust
▁cable
▁possibly
she
grees
▁sr
▁volunte
▁calls
▁0)
clos
▁hug
▁minnesota
▁closely
iling
▁withdra
▁formula
▁criminal
▁crisis
▁shall
▁cabinet
▁rober
▁landing
isf
trans
▁circle
▁consec
amilton
▁broadcasting
▁veter
▁bottom
▁czech
▁analy
gement
▁cinem
ilation
▁cad
▁hope
▁escape
bill
▁moment
▁maintain
poses
▁ker
▁equivalent
▁degrees
▁terminal
oster
▁factor
▁vietnam
▁images
▁patri
illery
▁shore
bey
▁proced
▁observed
▁fresh
▁routes
anth
ori
▁mexican
▁speak
appe
hard
▁salt
▁why
▁dream
▁affect
▁korean
▁streets
▁gib
etery
▁extension
▁mobile
acent
▁walter
▁instance
▁courts
▁ruled
ensions
▁alleged
▁manchester
▁chapter
▁offices
▁doing
▁educational
iful
▁simon
▁homes
▁elimin
▁advantage
▁journalist
▁hors
▁disney
▁provincial
▁contributed
▁aired
lyn
▁task
▁eyes
ogy
▁standing
▁repeated
▁difference
▁rhy
▁try
▁views
▁fixed
▁cemetery
▁allen
pres
cow
▁twelve
▁establishment
▁missouri
▁occas
▁"''
▁cdp
▁lane
▁orange
▁nich
▁austria
net
▁liqu
▁fighter
▁mi
▁fashion
zz
olished
father
▁orthodox
▁operate
▁producing
▁confirmed
▁knight
▁monarch
▁pron
▁successfully
fir
▁é
▁inhabitants
such
▁gallery
▁terror
▁hollywood
▁locations
▁::
▁clark
▁partner
rix
▁gene
▁musician
ben
▁popularity
racy
▁parallel
ova
▁northeast
▁cape
▁mol
▁kl
esh
▁output
eller
eration
▁depending
▁frederick
▁entry
▁bos
▁dc
▁sale
▁inters
▁describes
▁bright
▁relative
black
▁devices
▁plane
pre
▁submar
▁none
▁princess
▁raf
▁laid
▁users
▁treas
▁defend
▁lam
yard
usal
issance
rons
▁bowl
uses
▁colony
▁definition
▁statement
▁articles
▁partnership
▁experien
▁ment
▁goods
▁obl
osa
▁extremely
▁brian
▁walls
▁bodies
aria
▁persons
▁briefly
ito
▁(0)
iary
▁taught
▁cryst
▁portra
▁lyrics
erts
ager
▁caval
▁pav
▁voted
▁revol
▁passing
▁circum
▁founding
cious
oto
▁install
▁resear
▁airlines
▁door
▁gay
▁factors
▁thousands
▁string
▁dialect
▁adap
▁cha
▁quebec
iscons
▁translated
▁consisting
▁grey
▁category
▁bh
▁instruments
▁differences
▁scenes
▁magic
▁federation
▁soul
utation
edia
▁entrance
▁hamilton
low
cop
▁singapore
rate
▁tas
▁reviews
▁dies
antic
▁franch
▁hou
pir
▁agriculture
▁fictional
▁plus
ef
isconsin
olas
▁recognition
▁southwest
▁otherwise
▁allied
▁counties
▁pictures
▁kansas
▁reality
▁ul
▁vert
▁charter
▁underground
▁designs
▁looking
pop
▁shell
iner
▁sunday
▁uncle
▁alco
▁khan
lets
▁rod
fran
icial
▁atm
▁laure
▁clean
▁loy
present
▁solution
ieties
iac
▁items
while
▁villages
▁commissioned
▁deputy
aug
▁swim
▁thor
▁jam
▁greg
▁costs
▁musicians
▁00-00
▁broken
▁wolf
▁dat
▁appoint
▁peninsula
▁ali
ceived
▁witness
ão
▁adam
going
▁faculty
▁recre
▁greece
rele
▁passengers
▁consisted
▁jacob
▁appropri
vant
wal
wealth
▁ko
othes
▁trip
icate
▁receiving
▁(0000-0000)
fr
▁brid
▁challenge
▁norway
anna
▁requires
▁fred
ender
wall
▁candidates
eld
inth
▁cass
▁draft
naissance
▁technique
agu
▁colorado
▁trying
▁grounds
▁cards
▁mode
▁blues
▁attor
▁sid
▁context
▁habit
▁significantly
mill
elect
▁consult
▁violence
eria
mers
▁operates
▁medium
▁frequency
▁artillery
tor
▁patrol
▁participated
▁anderson
▁physics
icts
▁kim
▁pray
dp
▁purposes
▁drink
vent
▁bart
rat
▁credit
▁queens
cat
▁alan
▁tact
▁innov
▁decade
▁legislative
iang
▁discovery
▁chapel
▁skin
isa
▁000-000
mi
▁resemb
▁seems
▁nickn
▁graduate
iants
alo
▁serb
you
▁ther
▁patients
rell
▁brun
▁mp
▁unus
▁improve
▁jos
▁manufacturing
▁favour
▁rig
▁arrested
▁affected
▁il
oud
▁moore
▁novels
▁severe
▁adjacent
▁ceremony
▁samuel
▁ille
▁covers
▁monument
▁dates
▁territories
▁purchase
ologies
▁funds
▁weekly
▁fu
▁benef
erto
lock
gate
▁genus
ares
stit
▁construct
▁sector
ocol
▁nam
▁junction
best
▁pir
apse
▁recip
mid
▁subsid
▁installed
ür
00,
▁gordon
▁personnel
▁scholar
▁mississ
▁vision
▁investigation
tz
oking
▁mans
▁tren
ippi
▁sections
▁inner
▁rejected
▁fried
▁gender
etime
lie
▁rud
▁registered
pal
▁increasingly
▁explos
agen
▁asc
▁satellite
▁vs
▁occasionally
▁fisher
▁lun
▁aviation
▁wisconsin
▁fo
▁hans
div
phone
▁passes
▁hell
borough
▁vii
▁upd
master
▁golf
icide
▁(000.0/
▁myst
rete
▁hang
▁bath
how
ivals
▁hawai
▁transition
ache
▁gulf
▁documents
▁tells
chang
▁imag
▁really
▁parliamentary
▁components
▁symph
ords
▁rates
▁authors
aza
▁rebu
range
idden
▁colonel
▁mine
level
▁assass
▁ah
▁pure
▁transit
orge
▁whereas
▁atmosp
aph
ushed
▁residence
▁commonwealth
urday
inner
▁mouth
▁phr
vol
▁flo
▁attached
▁check
▁wins
▁isol
commun
▁battles
▁islamic
aints
▁injury
eley
cho
▁apple
▁distinguished
hold
ilit
outs
owned
▁painter
▁recordings
▁param
▁kennedy
▁weak
▁perfect
related
high
▁depos
▁absor
▁truth
▁understanding
▁employees
▁emot
bat
aust
▁gab
▁somewhat
▁mathematics
bus
vest
▁ern
▁starred
▁modified
▁debate
▁dick
▁lawrence
akh
▁funding
▁normally
▁abc
ghan
▁leads
fire
uits
pective
▁tick
roit
ocracy
▁composition
▁graduated
▁kal
jun
▁patrick
▁duty
enses
▁roger
▁tennes
▁poem
▁thing
▁rum
▁surg
▁selection
las
ategy
▁manner
north
▁export
▁focused
soft
owa
friend
▁wy
▁juris
▁nest
▁policies
▁cot
▁save
▁stret
▁superv
hou
▁capture
▁lakes
▁grass
▁pin
ika
called
▁delay
action
▁landsc
▁mall
▁message
▁stands
▁interests
poss
▁jane
▁drawn
▁buck
sal
▁commem
▁scheduled
▁boundary
▁watch
pes
▁tennessee
▁wire
▁winds
apes
▁opportunity
▁emergency
iva
▁parks
▁spiritual
▁superior
▁metro
▁tests
phe
▁lith
▁weapon
▁refuge
▁veget
▁lanc
▁ltd
▁ale
▁assess
▁testing
▁maryland
▁olympics
▁dol
▁distributed
▁industries
▁driving
press
▁exception
▁reaching
ublin
▁indiana
▁capable
▁scheme
▁solar
rator
▁amend
▁rol
▁coalition
▁hunting
dam
▁photograph
cor
▁guitarist
▁revolutionary
▁expand
▁retail
body
▁deleg
atically
▁strategy
▁!!
▁evening
▁additionally
▁finish
rose
mouth
▁criticism
▁dal
▁eat
▁tropical
▁herself
▁coastal
elle
▁separated
ré
ocated
▁coordin
▁details
▁calling
wegian
▁pool
▁diet
▁resigned
▁investment
▁suggests
▁descend
clusion
▁chance
wich
▁philippines
that
▁assault
▁considerable
pie
▁clay
oven
▁skills
▁mes
▁feed
▁singing
hand
▁carrier
▁bronze
know
song
cur
oyd
▁socialist
▁representing
▁preced
bishop
▁wine
▁harris
▁traditionally
▁delivered
▁prohib
rant
▁00000
▁aware
▁nfl
inction
▁markets
cons
▁bib
▁bruce
▁immigr
▁divisions
uous
▁promote
▁lang
icien
▁fishing
▁kat
▁ark
ordan
!''
▁expression
▁crossing
▁fill
enh
▁anch
eton
▁arena
▁elder
▁tow
▁successor
▁buy
▁external
▁pig
▁000-
united
▁invent
▁influential
▁processes
▁transmission
▁retained
▁selling
▁zero
gue
hus
ographical
▁sleep
▁spoken
▁scar
▁ip
▁ottoman
▁franklin
▁anthony
▁drew
▁simpl
▁assumed
▁cloth
▁involving
ifications
icians
▁describe
▁visitors
▁roberts
▁useful
▁lob
claimed
▁seventh
fare
inian
amental
▁pages
national
▁hyper
▁teen
uster
▁lad
▁gear
▁aspects
▁cm
▁determine
▁desert
▁survived
▁decor
▁moscow
▁roughly
▁reputation
▁visible
▁proport
▁retirement
▁00)
▁safe
▁mining
▁restored
▁businesses
▁membership
▁faced
▁attorney
▁warri
eless
▁credited
lah
oles
▁cul
▁concluded
▁palest
term
antly
▁util
▁chose
▁melbourne
aked
▁pric
aux
▁sufficient
first
▁legislation
▁tunnel
="
▁pip
▁wol
▁canc
▁rit
▁soil
▁bom
▁manus
▁switch
▁diamond
▁ridge
▁harm
▁storage
▁decline
▁edited
▁actors
▁yards
▁accused
render
▁carrying
▁mississippi
▁nel
▁cbs
oen
▁gardens
white
▁juan
▁russell
▁adams
▁gi
iders
▁experienced
''-
two
▁sugar
▁indones
▁learned
▁networks
▁collected
▁johann
istol
▁lev
▁colour
▁instruct
▁greatly
▁responsibility
▁accounts
cha
▁cod
raine
gun
▁rhyth
▁hurric
▁electrical
▁poems
▁tribes
▁si
▁charges
▁diego
▁publications
▁upgr
▁engaged
▁controversy
▁principle
▁damaged
▁charged
uccess
▁wides
istical
▁cavalry
▁inher
onian
▁eric
▁session
▁wick
uma
▁stating
▁fm
asts
hammad
origin
▁option
▁exhibition
eline
▁measures
▁excell
▁ere
▁coc
tes
▁norman
▁regularly
▁$000,000
▁throne
▁rebell
▁dod
▁journey
▁progressive
▁conservation
super
▁accompanied
▁denmark
▁guy
rapy
▁scand
itzerland
▁rice
▁arrival
▁supposed
▁questions
▁pel
▁bible
▁accommod
alf
ovak
omic
▁index
▁matthe
endar
.0000
▁dismiss
▁restrict
vements
▁opinion
▁‘
▁hud
▁divor
▁''(
▁appeal
▁puerto
▁harbor
▁subjects
itt
▁intellect
▁broadway
▁bid
▁adapted
pur
▁om
▁dave
iley
▁sad
▁monaster
resents
▁provinces
▁alfred
cular
▁hired
▁prepared
▁animated
▁resolution
▁aged
amps
▁encoun
▁controversial
▁neither
▁productions
▁replacement
lan
ista
nov
▁massive
▁movements
▁bah
▁effectively
▁requirements
▁detroit
▁promotion
▁bun
▁papers
▁fired
inations
▁belg
▁similarly
gorith
▁alexand
▁hub
▁outstanding
▁extreme
▁strongly
▁ric
chi
▁ss
▁economics
▁norwegian
▁easy
▁heads
▁reconstr
ante
▁sult
▁practices
▁biggest
▁wet
▁roof
▁turkish
▁backing
▁represents
lem
▁constitutional
▁camera
▁historically
▁nbc
▁lock
▁duties
▁surf
▁organisation
▁diagn
uration
▁pc
ounced
door
▁ku
▁exists
▁uss
ardo
▁houston
▁thick
▁salv
▁depression
▁admiral
▁portugal
▁rapidly
▁phill
▁sig
rage
▁ahead
izon
▁manuscript
▁statue
▁springs
▁algorith
▁benefit
▁resign
▁fantasy
pers
▁stewart
iga
▁manif
▁mounted
▁sort
nie
▁sor
ruction
▁soccer
▁tang
▁principles
▁ratio
▁aw
▁assistance
▁franchise
▁haz
▁osc
▁radical
▁linked
ucks
▁finds
▁hence
▁gent
▁evil
▁baby
▁laboratory
▁declined
▁afghan
sim
ikh
▁wings
▁achieve
oes
▁continental
▁turkey
▁abb
ctic
free
▁committed
▁lingu
▁margin
▁dean
▁dna
▁louisiana
▁logo
▁bry
▁switzerland
▁grav
▁ago
▁lod
▁scoring
bound
▁(0000–00)
foot
▁lux
▁fruit
▁shield
▁welsh
boards
▁playoff
▁relief
▁colleges
icut
▁jet
▁passage
raction
▁thousand
▁mental
▁neighbour
▁plain
▁dj
▁getting
gments
▁stanley
essions
ello
▁interv
▁cous
▁trading
▁classification
fast
▁croat
▁commemor
▁lap
cted
▁consecutive
▁exerc
▁adding
▁settlers
ders
otype
▁owners
bb
unc
▁wright
▁montreal
igenous
▁swiss
▁mack
▁criticized
▁representation
▁stages
▁soldier
▁(0,000
▁oregon
▁dublin
▁eval
▁bour
ture
▁remember
▁celebrated
▁mechanical
▁''"
▁movies
▁ans
lad
break
bird
idae
▁stro
▁ambass
oked
▁huge
▁pad
rations
▁dress
▁lion
▁nazi
boy
▁arn
▁jurisd
▁ele
/0000
▁biography
▁ion
▁destruction
▁processing
▁ay
sur
▁domain
pread
▁courses
cription
▁finance
coming
▁changing
eing
▁renew
sea
▁benn
▁didn
ui
itable
▁lawyer
tenance
▁alcohol
▁legislature
▁electoral
▁auton
spec
imens
▁surrender
▁expect
▁formally
▁christopher
▁philosopher
▁twin
▁campbell
rises
▁soph
▁kentucky
▁kev
▁residential
eign
▁stopped
kyo
▁missile
▁ensure
▁margaret
▁rib
hop
▁concerns
issue
▁tennis
erate
▁curt
▁seconds
▁stream
▁rout
▁coff
nas
oust
iciency
▁gray
▁continuing
▁donald
dd
▁outer
▁vast
▁austrian
▁curren
▁widespread
abama
▁finn
▁mars
▁invited
dem
▁governments
ateur
▁crash
▁input
leg
▁anything
";
isted
▁protected
▁tab
▁gather
▁longest
▁harvard
▁jordan
four
pm
eenth
brew
▁liquid
lahoma
▁forming
ranean
thro
▁tools
▁machines
▁extent
▁adaptation
▁gradually
sub
▁supporters
iami
▁nik
veland
▁disappe
brit
▁ownership
▁jay
san
▁maintenance
▁roots
▁honorary
▁printed
▁filled
▁malays
▁occupation
▁beautiful
christ
▁taiwan
▁clim
agues
▁chanc
▁minimum
▁headed
▁vect
▁protein
▁thin
▁guid
▁clock
▁portrayed
▁accompl
olds
▁mong
▁unsuccess
▁dual
▁danish
atherine
▁existed
▁random
▁apparently
▁component
just
▁tribe
▁contributions
▁hear
▁mail
usalem
▁indigenous
▁experimental
dan
▁giant
▁pic
▁insurance
zona
du
▁morris
▁uniform
▁honour
▁00:
▁explained
kshire
▁persian
▁drag
▁morgan
ologists
▁rescue
▁stood
▁walker
city
▁hip
▁incom
▁sang
▁dating
▁wes
▁alleg
▁strategic
▁israeli
▁offering
▁afterwards
▁allies
.”
ded
▁painted
▁caught
▁hosts
▁(00.0%)
later
▁sultan
allas
▁speaking
▁depth
▁prisoners
▁optim
▁excess
▁peop
theless
▁abbey
▁integrated
▁armen
▁populations
▁returns
▁hundreds
▁styles
▁prompt
▁mills
▁strict
ailed
▁remark
▁cash
ashed
▁inaug
▁tokyo
▁viewed
▁scientists
▁carter
hill
▁sover
▁cher
▁texts
▁window
ía
seud
season
▁stress
intend
ensed
▁indicate
▁coat
irt
▁nevertheless
▁calendar
▁profession
▁sovereign
contin
▁lem
icop
apers
obi
▁pruss
▁wrong
▁vow
py
aware
▁ideal
▁surviving
mm
▁grown
▁periods
▁hamp
load
▁thirty
.000
▁arist
orus
▁adopt
org
grand
olid
oct
▁rising
▁centers
▁trained
oslav
var
▁orig
▁limits
▁pas
▁peoples
▁secure
▁flights
died
antine
haw
▁nelson
▁warm
using
ez
phil
chel
▁comed
▁arizona
▁statistical
▁drawing
▁footballer
▁airline
▁delta
hered
▁finding
▁understand
ules
▁wounded
donald
?"
▁germans
green
▁vul
▁preserv
▁root
udes
▁satisf
▁cov
▁soundtrack
▁nit
▁marshall
rus
▁mini
oli
▁vessels
▁connecticut
▁description
▁shif
attan
▁teach
▁eu
▁hungary
▁signs
▁trig
▁linear
▁prix
▁classified
▁gam
chell
publ
▁spin
iah
▁basin
▁personality
▁links
▁karl
▁alabama
▁prosec
▁pleas
▁offensive
▁athletic
▁yan
▁noble
▁drugs
▁frequent
(''
▁temporary
▁ride
▁rick
▁filmed
▁hem
▁struck
!"
there
mingham
▁appearing
▁sweet
▁volcan
▁nut
▁thompson
▁volumes
inburgh
▁admitted
zi
▁maur
mr
▁temperatures
▁toy
▁indeed
▁kick
cycl
▁indians
apolis
▁turns
▁yield
his
▁saturday
▁capit
oria
▁mrs
disc
▁ky
▁agents
▁corporate
▁tam
▁billy
▁meanwhile
▁dre
lic
rac
▁treated
▁paintings
▁oxy
▁dy
▁covering
▁license
vious
▁coverage
riers
▁substit
▁interstate
def
▁fern
▁channels
▁antonio
▁charts
nell
▁hindu
bow
ser
dest
▁unusual
▁robinson
▁vinc
eur
▁tong
▁equipped
▁arranged
▁geomet
▁discip
▁finland
▁valid
tical
▁speaker
ellor
▁restoration
▁shopping
▁belgium
▁serial
▁directors
és
obile
▁everything
otte
▁yor
▁render
away
▁por
▁genre
▁worship
van
▁oklahoma
▁shock
▁increases
▁teachers
▁submarine
▁essential
▁moves
far
abled
▁pitch
▁practical
▁missions
urg
timore
▁**''
▁cler
▁jerusalem
▁tot
▁stim
▁parad
eas
iterranean
▁bic
▁voters
▁displ
▁interested
▁murray
▁bind
▁warner
▁segment
▁kelly
▁concerned
folk
path
▁symphony
esis
jamin
▁gone
▁hunter
▁sympt
fish
style
▁liverpool
▁starts
▁kevin
▁calc
▁gill
▁impris
▁turb
▁knew
▁vit
▁partly
apping
▁circumst
▁riding
▁acknow
▁historians
cd
william
▁cited
▁wooden
▁vienna
iop
▁engineers
▁ni
▁baker
▁fib
▁luther
▁(0000-0000),
▁executed
▁liv
gie
▁0000–0000,
▁neck
ultane
▁hunt
▁lasted
▁attributed
▁continuous
ét
▁operational
▁config
▁cleveland
▁branches
▁chile
▁instrumental
▁rooms
▁raise
▁amateur
▁tip
▁orbit
utor
abet
▁traditions
▁sight
big
▁flash
▁hob
▁panel
rog
▁gon
▁barry
▁jobs
▁wonder
▁proposal
▁surrounded
ader
tering
▁borders
fil
person
▁pull
▁origins
▁detailed
▁enforce
▁triang
▁furn
uda
▁send
ilst
▁genetic
▁begun
bean
▁restaurant
▁ms
▁perc
▁characteristics
▁completion
▁bernard
▁knock
▁participate
▁entering
▁seattle
▁triple
ingly
pin
▁victims
▁ye
ridge
▁siege
▁moral
▁prede
igration
rehens
▁hurricane
▁minority
oa
▁dioc
brid
▁goth
▁ing
▁defensive
▁lud
▁designer
iti
▁helicop
▁childhood
▁renov
▁layer
▁mediterranean
▁tourism
anny
▁manh
umed
ners
▁carib
adesh
▁amongst
▁archbishop
▁simultane
asa
▁lan
▁flows
▁concentration
▁horses
▁colors
▁nob
▁spaces
▁losses
si
▁congreg
rastruct
▁bringing
▁pant
oz
▁pitts
▁nag
▁atlanta
▁dragon
erted
▁gross
▁tool
▁missing
▁matters
urally
▁reprod
▁revival
▁miami
▁rating
▁employment
▁injured
▁suicide
▁edinburgh
▁absol
▁emerged
▁warren
▁peters
▁substantial
▁tub
▁marketing
▁operator
ishment
▁behavi
▁denn
▁graham
▁din
▁datab
▁advertising
emen
▁shooting
▁usage
▁replacing
rip
▁rus
▁whilst
▁crus
govern
▁experiences
ando
▁hitler
▁educated
kar
▁rarely
ribed
atus
▁diction
▁mond
▁jenn
▁marks
▁electro
▁johnny
▁wearing
▁maps
▁provision
▁monitor
▁fundamental
yon
▁dak
▁quad
▁phrase
▁jimmy
mund
▁cartoon
▁birmingham
▁radar
▁ian
▁ninet
german
osph
▁$0,000
▁infrastruct
sil
cap
▁shares
▁annually
▁rebellion
▁resort
▁angle
▁repr
▁forb
▁recommended
▁attracted
▁sudden
▁serge
▁commerce
▁files
abilities
▁indicated
▁involves
▁relation
▁napole
iest
▁hungarian
▁immediate
▁ghost
rh
▁expensive
when
▁premi
aire
ivan
▁newspapers
▁kra
▁000)
graduate
▁tempor
▁alge
pent
▁magnetic
▁radiation
▁appropriate
uces
▁creative
uations
▁bact
▁encouraged
borne
▁obtain
▁photo
▁desire
▁cultiv
▁dangerous
aj
▁argentina
▁casual
▁orb
uble
▁ambassador
ambig
su
andy
▁interpretation
ricted
▁kam
del
fre
▁mechanism
▁nash
iqu
▁egyptian
fc
released
▁rocket
oba
▁turning
▁iowa
iden
▁sounds
▁rever
▁civilian
iki
odore
▁predecess
▁transmit
▁tanks
▁adjust
▁voting
▁joining
▁ft
▁loop
▁theories
▁conventional
dav
▁commons
great
▁regime
▁partially
▁surgery
bet
▁opponent
▁benefits
▁writings
▁undert
▁deck
▁preserved
▁relationships
▁baltimore
▁:''
▁ferry
iser
good
iller
speed
▁fled
▁deaths
▁wag
▁°
▁diff
oker
▁joy
▁dominant
▁byz
alph
hour
▁dominated
▁tribute
▁collaboration
▁anglo
▁rifle
▁happened
▁collapse
▁compete
▁commissioner
▁meat
▁corrupt
bach
▁accel
usa
▁belt
▁canon
▁explor
cro
▁variant
▁balance
▁interpre
▁voy
▁choose
▁annex
▁generated
▁pod
atin
velt
gow
▁clearly
▁confederate
▁stable
▁harbour
station
▁clinton
phal
▁harrison
helor
▁kilomet
▁highlight
▁revenue
cules
▁gy
▁lists
▁merchant
▁diver
▁predomin
▁sessions
▁reduction
iph
rolled
▁portrait
ussion
whe
itarian
▁benjamin
▁slave
▁oxygen
▁patent
▁computers
gent
▁kon
▁drummer
▁eug
▁farmers
ige
▁chemistry
▁error
▁microsoft
▁brazilian
lington
▁democracy
▁boats
possible
▁struggle
▁produces
▁percentage
▁gor
▁pierre
▁intention
second
▁ibn
▁cruis
▁landscape
▁guar
fs
▁illegal
▁compilation
▁sharp
▁mathematical
▁absence
▁tort
▁apply
▁intent
lete
bul
▁themes
.'
elli
▁supplies
▁nba
dire
▁eagle
dist
▁possibility
▁ready
ifies
▁recept
▁romantic
▁patron
▁vessel
▁horizon
▁cole
▁driven
▁christianity
appro
▁cock
▁gary
▁exceed
▁marie
▁nomination
▁gets
▁amendment
▁copper
▁releases
tha
▁variable
▁len
▁flav
▁praised
▁foss
▁esp
ictions
sing
univers
▁cyl
ooth
ouver
▁declar
▁producers
oga
▁researchers
wright
ör
▁josé
▁blind
▁false
▁polar
▁apost
▁(0000–
hall
cour
▁sisters
lik
▁austin
▁infrastructure
▁protestant
uki
▁steps
mart
▁wayne
acre
▁constituency
orship
▁departure
▁stayed
▁shah
▁patient
▁virtual
▁involvement
▁angl
▁dogs
▁cargo
▁blocks
▁collections
▁beng
mate
▁arabic
berry
▁ww
▁pent
▁aggress
mount
▁kaz
▁harmon
▁trap
uri
anian
▁femin
▁kin
▁gosp
▁grace
formerly
▁characterized
yan
▁*0
▁denied
▁explo
type
opes
▁exposure
▁holiday
▁arrangement
▁comprehens
▁earn
▁publicly
▁bog
udi
front
olia
▁hull
president
▁depicted
▁cotton
igo
▁cave
▁neutral
▁ted
xic
▁adventures
acle
▁gradu
▁telephone
sect
three
▁boundaries
▁dock
abil
▁eighth
▁heir
▁shift
post
▁prices
iveness
rin
▁remove
▁nan
▁distinction
ulating
▁artific
scale
game
atch
▁cinema
▁inqu
▁elsewhere
blue
▁blo
tel
▁threatened
▁editions
▁adventure
ingham
▁truck
▁evolved
▁ministers
itis
▁nurs
▁dallas
▁signals
▁bin
▁argument
▁closer
adi
▁tib
▁patterns
▁nom
▁quart
ignment
▁meets
▁customers
ml
hell
▁eleven
oly
▁raj
▁remainder
▁mck
▁ble
▁liberty
▁essentially
▁hut
castle
▁propag
osevelt
▁bald
▁prefect
▁graphics
idency
market
▁pink
▁exercise
final
▁identical
dou
▁pregn
▁loan
▁monastery
▁pine
▁matthew
▁concerts
then
rors
▁raw
▁spoke
lay
▁parker
▁dated
▁alpha
▁saints
▁technologies
otes
mag
▁phoen
▁ceremon
▁masters
▁(0000–0000).
mc
▁flower
▁hardware
billboard
▁yug
▁crowd
▁occasions
aste
▁matrix
▁summit
▁pseud
isition
ais
▁waste
▁daughters
▁tape
▁weekend
▁leaf
▁ri
▁animation
▁corresponding
▁pharm
▁slaves
race
ersed
olo
▁shadow
▁catch
▁biological
▁bears
▁ryan
▁anyone
▁heaven
▁meetings
only
▁jum
child
▁sword
▁analog
▁associate
▁tube
▁debt
▁demon
▁griff
▁isa
▁enjoyed
▁zh
▁claiming
▁circumstances
othy
▁cousin
▁worn
▁vik
▁experiments
▁challeng
▁hebrew
▁supports
▁manhattan
▁identify
leans
▁touring
▁psychology
ashi
▁yard
▁efficient
sv
▁logic
▁richmond
▁(),
▁finishing
▁parent
▁sample
▁variation
▁hudson
▁bachelor
orous
▁consumer
▁persu
▁originated
▁(0.0
▁fitz
strong
hetic
▁andre
euro
rot
▁fitted
▁nobel
▁reli
▁prest
▁ruling
▁statistics
▁jar
ifer
▁guer
▁sket
▁phone
▁thereafter
sters
▁warfare
▁connecting
▁wool
inch
▁tourist
▁approval
via
izer
love
▁revised
▁proof
▁ranks
gold
▁mainstream
live
▁displayed
▁tob
▁cru
▁collins
iration
▁symptoms
wind
▁lac
▁fert
▁ced
ancouver
▁stu
▁references
ín
▁anat
▁pole
▁mines
▁roosevelt
ère
▁concrete
▁cp
▁dum
▁trophy
▁suffering
▁tone
▁descent
▁anna
▁libr
▁swit
▁cord
▁forests
▁immigrants
▁(,
▁muhammad
▁sole
▁hearing
▁compens
rett
▁flowers
▁hypothes
▁expert
▁impossible
▁gates
▁nicholas
▁****
urers
▁afghanistan
▁jefferson
▁discussion
▁manufactured
▁eggs
▁hole
▁preferred
▁locally
amics
▁suitable
▁charity
xual
nn
▁mitchell
▁hend
▁seed
▁chess
onymous
▁michel
▁theorem
▁decisions
▁sri
▁seeking
▁automatic
▁'00
aro
▁sod
▁berk
▁speakers
redited
ambiguation
▁islander
▁interface
▁rocks
gam
▁colonies
▁wildlife
▁notice
▁conscious
▁achievement
▁pale
▁artistic
▁peer
amine
stad
▁mg
▁volt
▁trump
▁baptist
group
▁concerning
▁gat
▁dispute
▁implemented
iii
▁cort
enburg
▁milk
▁contribution
jack
cos
▁execution
▁orleans
▁battery
▁violin
▁democrats
illo
▁sentence
▁keeping
dor
▁conversion
▁illustrated
▁agencies
▁empt
stood
▁seal
▁filed
▁finals
▁nhl
▁cardinal
othe
▁falling
▁explicit
▁furthermore
▁punk
▁torn
▁marvel
▁atmosphere
wig
▁exposed
)"
▁administer
fm
▁adults
▁guards
▁scholarship
▁manufacturer
▁clan
akespe
pled
▁settlements
some
▁deriv
▁interchange
▁kg
cht
▁coup
▁ukraine
▁explan
▁tied
▁jerry
▁quantum
▁mainland
▁writes
fi
▁gap
disambiguation
▁amaz
▁bund
▁suburb
▁danc
▁tomb
ums
▁dramatic
▁visiting
▁partners
▁birthday
▁romania
▁ceo
▁lifetime
▁regulations
▁drivers
▁swimming
feld
▁syndrome
▁discontin
▁migr
▁vertical
pen
▁pittsburgh
▁barn
▁christians
▁trials
▁glas
occ
▁flex
▁variations
▁barbara
rob
▁pioneer
walk
ogan
▁soci
▁alien
▁survive
▁finnish
▁caribbean
ethe
▁shan
isp
march
▁repair
▁appointment
▁democrat
▁instruction
▁(;
▁chrom
▁kan
fun
▁stere
oard
▁meters
agh
▁lose
▁evans
▁intermedi
enz
▁boss
▁um
itary
ulu
found
▁characteristic
▁advice
▁kur
▁sut
▁butter
making
mother
én
▁motors
▁(0.0%)
▁crystal
▁dup
▁connections
▁stevens
akespeare
chron
geon
▁godd
▁gym
▁rhod
▁algebra
▁rogers
assy
▁neuro
anne
▁evangel
-00,
▁hampshire
▁cogn
sat
▁measured
▁grammar
%)
▁tap
▁overseas
▁rico
▁sic
▁hawaii
▁acoust
▁buddhist
august
▁indicates
▁shops
▁nev
▁merger
▁plastic
oric
▁wake
▁metres
▁thunder
▁acknowled
▁sacred
▁ceased
▁sustain
▁facing
▁profile
▁bridges
▁buses
▁affair
▁commanded
▁earthqu
cia
ixon
▁initiative
gle
case
▁guil
▁nova
▁comparison
▁carn
▁×
▁alternate
▁noise
▁wells
▁sib
00.
▁lowest
▁tak
▁mason
▁breaking
ilding
▁lights
▁bone
▁violent
▁restaurants
▁hier
▁ruler
aman
music
▁doctrine
▁bent
nik
▁lords
▁injuries
▁municipalities
▁rio
ensively
▁manual
▁hugh
▁rac
▁lav
▁meg
▁reportedly
▁scientist
▁charlie
▁percussion
▁waves
anim
teenth
▁beauty
speaking
▁minute
▁vancouver
oons
▁pearl
▁cruc
▁torped
▁cran
▁yugoslav
▁possession
▁alive
▁.000
rection
▁vin
▁leban
uzz
▁wre
▁monte
fts
▁anchor
▁beer
▁stones
▁dictionary
▁glac
▁faster
▁carlos
▁hydrogen
idal
▁equation
▁avo
▁rush
ocation
▁categories
estone
▁farming
▁marit
mor
hero
▁jonathan
▁remote
▁gods
raham
▁bug
mac
▁galax
▁athens
▁feud
▁terry
▁railways
▁discussed
▁glen
▁conquest
▁heights
▁ukrain
▁fasc
▁phon
▁therapy
▁businessman
▁guine
▁locomotive
enez
▁restricted
▁rhythm
▁helping
▁negotiations
hs
▁globe
▁reducing
▁arkansas
minster
▁chancellor
▁surviv
▁rebuilt
▁implementation
▁alaska
▁keyboards
▁mud
ario
▁platforms
▁slowly
god
▁diverse
▁convin
▁exactly
▁subsidiary
▁exclusively
▁lip
▁distinctive
▁consolid
appo
▁auto
▁agree
▁chick
▁camps
▁defeating
▁demonstrated
▁delivery
▁aimed
▁cultures
▁usual
stan
▁protocol
▁arrow
▁recovered
jour
active
▁buffalo
▁remix
gir
acht
▁duc
▁sevent
▁succession
▁pont
chief
▁colomb
▁everyone
▁turner
▁climb
▁seeing
▁niger
▁boeing
▁muslims
▁unless
stre
▁opportunities
▁grave
▁manifest
▁recommend
▁disorder
▁pon
alt
▁hidden
▁kirk
▁powered
little
▁assets
▁erected
▁bases
▁illness
▁schedule
▁cliff
▁crimes
▁gur
▁grove
▁talent
▁phenomen
▁andy
▁gren
illing
▁surve
▁compact
▁woods
etary
▁particles
▁kw
▁clothing
aco
turn
▁guarant
lane
iler
▁insect
▁establishing
▁thanks
nt
helm
▁diplomatic
▁artificial
▁vector
▁autobi
▁diameter
▁ordinary
▁electricity
▁spending
▁intellectual
▁gust
▁herbert
▁organic
profit
▁palm
▁server
▁gw
nan
▁brooklyn
▁thinking
▁fighters
▁0,000,000
agre
▁brew
▁wedding
▁amounts
▁scout
▁jurisdiction
olition
▁anthrop
upt
0.0
▁caf
▁cattle
▁abst
▁rect
▁debuted
arest
▁traveled
icular
▁coins
▁boule
▁referring
▁enemies
▁concepts
▁decom
orient
▁gamb
▁loyal
▁$0.0
▁participation
eu
▁axis
▁tie
0"
▁rip
▁oz
mary
lord
eper
haust
▁pill
▁taxes
▁sarah
▁manip
▁database
▁motiv
▁invented
▁ibm
▁poison
▁lloyd
▁encycl
pel
▁congressional
▁ov
▁winners
▁procedure
▁tig
▁corp
▁parade
third
election
gus
▁horror
▁disaster
▁armies
mons
emed
▁participants
ayan
▁penalty
▁ferr
▁nord
▁load
▁answer
▁landed
uable
▁banned
bad
iko
▁fluid
alan
▁worst
▁tries
▁shakespeare
▁behalf
▁tea
▁vib
▁controls
▁comprehensive
▁marqu
▁''00
▁dict
olph
▁foster
▁printing
▁citizen
▁strat
▁happy
auge
▁sack
▁suspended
ao
▁stem
core
▁prayer
▁renaissance
▁solutions
yll
terior
▁doors
▁enthus
▁breed
▁attempting
gom
▁infin
heart
▁sees
▁excav
esty
acc
▁describing
▁departments
imir
▁ampl
▁facilit
▁fold
▁deployed
▁declaration
▁utah
-0,
▁diesel
▁indonesia
▁henri
▁pian
▁harold
▁responded
▁wider
▁recovery
▁forg
sol
▁maine
▁permitted
▁floren
▁toll
▁dakota
iture
asia
▁divine
▁dos
▁physician
▁cuba
▁brick
union
▁perspective
cut
▁abuse
▁funeral
▁choir
▁norfolk
ensis
ails
▁supplement
▁kne
rig
encing
▁influences
owski
▁coinc
▁removal
▁demolished
hot
▁fortress
▁celebration
▁£00
▁kiss
▁convert
▁malaysia
▁partial
nia
▁myster
▁bil
▁gabri
was
▁reverse
▁yorkshire
▁stick
▁wish
▁tum
▁burg
closed
june
kov
▁cooperation
▁bristol
▁spell
▁tet
▁jason
never
▁perceived
▁ninth
▁franç
▁announce
▁spa
▁coin
bas
▁amph
ieth
common
▁crossed
▁walking
amese
▁reforms
▁catherine
modern
▁mercury
uchy
fly
▁crater
position
▁dollars
enberg
soc
▁vas
▁novelist
aks
▁marx
▁forth
oni
▁smooth
▁reservoir
▁inject
ophone
▁larry
▁territorial
▁opponents
▁unsuccessful
▁acted
▁confer
▁clinical
-00.
los
mates
▁sect
▁devoted
mich
▁buddh
ester
week
▁kath
▁alice
ennial
maker
▁emphasis
▁byzantine
▁newton
april
▁improvements
▁reed
▁chand
▁dil
▁tons
nat
▁options
▁manor
▁alter
▁slav
▁simultaneously
▁immigration
▁wheels
cra
▁exit
▁gig
▁exhaust
▁studying
▁prototype
piece
▁till
▁stuart
▁stal
made
oys
▁abroad
▁activist
tom
▁tale
▁sponsored
▁archaeological
▁difficulty
▁ski
▁theology
▁math
▁enh
▁bish
ailand
▁wealthy
▁donated
pher
▁scat
▁breeding
▁verse
▁butler
▁favorite
ugu
▁coffee
▁algorithm
▁portland
▁isolated
▁condem
david
▁hein
▁phoenix
gence
erated
ollo
langu
▁dust
▁vern
▁resol
▁robin
▁closing
ulus
▁prol
lu
▁competitive
▁maritime
cre
▁sung
through
omorph
000,
▁legs
▁escort
main
▁cros
october
ulum
▁camb
atern
▁explain
▁gospel
▁oliver
▁rangers
employ
▁craft
▁victorian
rill
gart
caa
ipher
▁ranges
▁friendship
▁understood
▁manufacturers
▁architectural
▁borrow
▁sull
original
rah
sized
▁chip
▁trinity
▁toured
▁petro
▁vincent
▁resource
▁cc
▁pla
pit
▁merely
▁spectrum
▁holland
▁qualified
▁trek
▁photographs
▁font
▁photography
▁infer
▁nickname
▁0–00
▁encyclop
▁besides
gard
▁mam
▁keyboard
rub
igious
▁nasa
▁belgian
▁permission
▁ig
▁seemed
▁stored
onda
▁rolling
▁consistent
▁framework
▁0000'
▁exclusive
omon
aa
winning
▁denomin
▁embassy
▁cauc
gel
▁locomotives
▁frances
somet
brook
▁consumption
▁mirror
sum
▁essay
▁venue
▁evac
icon
▁inspiration
▁laser
▁depict
▁youngest
inals
olly
▁friendly
▁descendants
▁pref
▁fewer
▁0000''
▁ottawa
▁ranging
▁pilots
cult
▁regist
▁spider
▁(00.0
omous
▁portions
▁chlor
keep
imensional
porter
▁coron
▁sequel
▁ties
eva
▁package
▁intersection
▁symmet
july
▁pret
▁heroes
▁judges
▁campaigns
arked
▁initiated
▁lon
▁ongoing
▁aboard
▁societies
▁enforcement
achment
▁kle
▁maced
▁guild
igible
rous
▁monthly
▁mul
▁rim
▁credits
▁ug
▁pub
mits
smith
▁licensed
▁napoleon
▁competed
▁tours
family
▁uncertain
▁telesc
▁alberta
alia
▁eliminated
▁liberation
▁shaw
ationally
▁certific
▁basil
▁tenure
▁shorter
▁lenn
last
tan
language
sts
▁gif
▁feeling
▁obvious
eters
▁familiar
eb
▁compound
▁pi
▁duo
oded
▁lor
ierra
▁designation
▁ports
▁archives
▁caes
▁friday
▁signing
▁reporter
▁prove
▁mak
europe
▁extend
▁cutting
september
▁extensively
encer
▁queensland
uy
▁ivan
aments
▁flour
incorpor
▁ensemb
hur
minute
▁tract
▁gilbert
▁keith
▁suspension
0-
▁bullet
card
▁acquisition
▁apartment
df
▁convicted
▁romanian
written
▁recru
▁promin
owed
▁gift
anti
▁ukrainian
▁currency
▁rav
▁diseases
▁glasgow
▁kay
▁epic
▁ranking
▁efficiency
▁presents
▁aber
▁0/0
▁tales
▁acoustic
ibilities
kel
asi
stop
▁prosper
▁inhib
inus
shaped
lon
▁looked
▁ralph
thy
essed
uter
.),
▁milan
eto
▁recognised
▁competing
base
▁conclusion
sam
▁thailand
▁aug
▁vlad
five
▁shir
▁dennis
▁cancelled
▁atomic
▁wis
serv
acts
roph
zing
▁lis
agement
▁stran
▁handle
jud
▁warning
▁commentary
▁charlotte
▁abraham
▁enterprise
left
▁rings
▁mixture
cell
about
▁autumn
▁mant
▁sentenced
▁ticket
▁bars
zh
inum
▁presidency
▁arnold
osexual
mos
▁bever
▁subdiv
▁dir
▁steven
▁functional
▁reconstruction
▁hood
▁peas
▁difficulties
▁subsc
▁outbreak
▁boulevard
▁legacy
▁trigger
▁abbre
▁targets
▁legion
▁structural
▁dale
history
▁mild
▁rational
▁accessible
▁edwards
▁−
▁rounds
▁arbit
▁mh
▁sculpture
▁accurate
▁proteins
▁valuable
▁lank
cker
▁recur
▁filming
▁leo
▁kos
▁peaked
▁comfort
▁pam
▁legit
▁extract
▁morph
▁disk
rise
▁giants
lived
▁sick
▁lag
▁thereby
▁dismissed
estyle
▁situations
▁ue
▁lesser
▁regul
▁guilty
tre
▁hack
▁destination
▁relocated
▁veloc
▁bert
avel
▁bulgar
emic
▁hughes
roe
▁orn
▁tight
george
▁firing
▁trim
▁venez
▁burned
prof
ested
▁inspect
▁interviews
▁argues
omas
▁chase
boat
▁pond
drew
▁listen
▁counsel
▁hybrid
design
▁toler
oka
▁preparation
eston
cott
fted
aughter
▁muscle
▁unf
▁plains
▁intermediate
ortion
''"
▁ruth
▁craig
james
▁wallace
eta
▁interaction
▁beliefs
▁goddess
tur
▁bombing
▁ultimate
agonist
▁deliber
comp
▁hil
▁memoir
▁grandfather
riev
▁boom
▁harvest
ulous
▁flew
▁recipient
▁subt
ether
▁reflected
▁dependent
human
forced
▁oral
▁quiet
bing
▁afford
▁narrative
▁stamp
adian
▁improvement
▁requiring
itudes
▁herald
▁mystery
pic
▁victim
ido
▁forum
▁push
▁haven
cribed
▁(0.00
intern
incorporated
▁convinced
▁kids
illes
▁bare
▁unity
▁grid
▁preserve
dimensional
dal
▁chest
▁bav
▁saved
▁cloud
▁guardian
▁reporting
▁neighboring
▁commented
▁believes
▁aux
▁sailed
▁bce
▁exile
▁mold
rium
▁mend
▁arriving
agger
▁martial
▁danger
▁venture
aku
lings
▁fifteen
▁elabor
▁ask
▁rede
cester
▁memor
▁guit
osaur
▁spar
▁companion
▁tiger
▁fault
▁rally
ampton
▁towers
▁respective
▁undergraduate
▁iceland
erg
▁luis
▁compat
▁certified
gomery
▁bore
▁fulf
▁funded
▁tissue
even
etta
▁runner
▁consequently
▁perry
itan
swick
lou
▁excellent
▁blow
kan
▁swing
roid
▁shipping
▁separation
▁volunteers
kir
ymond
zed
▁readers
▁ratings
stown
arus
aser
screen
▁yam
▁mineral
▁friedrich
▁forty
care
mah
atra
▁pom
▁harvey
space
▁diocese
uka
▁absolute
▁objective
wheel
▁burning
▁optical
cca
▁receives
idd
january
▁impress
ruit
▁predecessor
oft
▁frontier
▁probability
▁photos
▁signature
▁raid
▁signif
▁guinea
▁privile
▁bobby
▁reaches
▁plaza
▁picked
nar
eric
step
effic
▁jump
▁vegas
▁craw
▁attending
▁approaches
word
▁voltage
gb
▁archive
iev
▁spl
▁knights
hon
▁accum
▁molecular
icance
tem
▁passion
▁confused
▁phosph
▁vig
▁jama
▁traded
zes
rates
▁magazines
▁retain
japan
▁behaviour
▁chi
▁timber
▁reorgan
▁disband
utt
unct
▁sure
▁eldest
abel
▁eddie
▁rhodes
▁crypt
▁tol
▁latest
▁demands
they
▁symbols
▁willing
▁statements
itic
▁publishers
holm
▁abund
listed
▁veterans
▁warriors
▁codes
▁lamb
spring
paul
▁cannon
▁00,000.
ahl
▁ferdin
▁villa
▁collaps
▁secured
▁requested
▁regardless
▁burial
▁fed
estab
▁sanct
ovakia
intendo
▁hammer
bank
▁welf
▁promoting
▁pointed
avery
anning
▁moderate
conn
▁ng
▁elite
▁pursue
▁cum
idel
oro
▁innings
▁faces
▁gregory
official
▁specialized
▁kap
▁client
▁chel
▁tribut
▁premiered
▁hp
coll
went
▁iranian
▁guitars
▁oblig
▁ronald
▁heavyweight
▁conductor
▁terminus
▁celtic
december
-00)
▁touchdown
▁nad
▁mathematic
▁curve
▁travels
▁ethiop
▁elevated
▁fifty
rien
▁spend
compass
▁smart
psy
▁fee
▁berkeley
uela
▁anime
▁freight
▁bankrupt
▁operators
▁displays
acon
▁delaware
november
archy
eli
▁abolished
▁neil
▁counterpart
▁£000
▁recruit
issions
▁shuttle
▁significance
▁pairs
▁consort
▁bicy
▁aside
▁assisted
▁temporarily
▁tibet
▁volunteer
▁eis
aba
▁corruption
▁phenomenon
▁elevation
▁grammy
▁escaped
▁cann
grade
▁retreat
▁alumn
▁departed
▁slavery
▁jury
▁nevada
▁tru
although
avia
▁abilities
▁bangl
▁easier
gements
▁approached
▁organis
pling
▁answ
page
▁alphabet
▁scores
▁manage
▁proportion
▁outdoor
amo
▁arsen
▁patt
▁chronic
▁virtually
▁surn
▁000–000.
▁chamb
▁dischar
hom
▁raymond
▁navigation
▁verb
phan
|''
▁attendance
▁exhibit
aven
▁peng
▁otto
▁varies
rogen
▁bishops
iji
▁maintaining
▁habitat
▁mechanics
ogle
pc
▁inherited
▁supplied
▁canton
▁fc
ported
▁egg
▁sitting
▁casualties
▁psychological
jor
anton
▁philippine
▁vital
▁venice
▁compounds
▁videos
▁alumin
▁wants
▁stol
ün
ovo
▁innoc
▁empty
isk
▁customs
▁fairly
▁referend
aha
▁madrid
▁marry
▁followers
▁competitions
vision
▁gauge
▁aar
▁wait
▁ernest
▁housed
▁pm
rupted
▁nun
cover
ylon
sou
▁unex
▁guests
fo
fan
▁withdrew
▁montgomery
link
iry
gio
▁brunswick
▁nerv
▁leop
▁beam
▁sulf
▁watson
▁tested
▁pitcher
ocy
▁murdered
lett
ouses
lection
▁yale
▁fallen
▁xx
cin
ön
▁configuration
▁mutual
▁connects
▁antiqu
▁organised
▁mcl
▁biology
ów
▁mete
▁nose
▁honey
▁stein
uin
▁xi
▁viewers
onduct
▁julian
▁drinking
▁developments
▁voiced
▁festivals
▁jacques
▁electronics
▁helps
robert
▁lig
▁testament
sterdam
▁restrictions
▁botan
pi
▁conspir
▁examination
▁liz
▁resid
▁pock
▁carries
▁helen
▁bombard
▁inducted
enged
▁ps
ipped
▁0000–0000)
▁ost
▁handling
month
▁recreation
▁placing
▁oscar
▁pushed
▁romans
▁ncaa
▁stops
rift
▁murphy
▁broadcasts
▁kab
▁joan
▁maintains
▁madison
every
▁array
▁dancing
▁canyon
▁anten
▁depends
▁bypass
▁libert
▁eve
▁mk
▁pist
▁redes
ye
irect
oda
▁integration
▁define
oning
▁susan
▁doubt
pine
▁mamm
alb
▁parking
▁affiliate
▁landmark
▁heath
ichi
▁acres
▁massacre
▁westminster
▁regulation
▁gn
▁deemed
inte
ław
▁keys
▁strings
▁mythology
▁bloom
▁dish
▁somers
▁attacking
very
▁radi
▁skill
▁topics
ellation
▁profit
anni
itals
▁bros
▁observation
▁welfare
bast
bone
▁relevant
▁doesn
▁traveling
sun
▁ja
▁judicial
▁libraries
▁chester
▁specified
▁devil
▁lunar
▁stability
▁submitted
▁trouble
▁sharing
▁fifa
▁independently
vet
▁scre
▁photographer
size
▁ster
▁fate
icas
ulsion
▁permit
norm
▁lex
▁explains
▁raising
agram
▁marshal
▁0000–0000.
stage
▁secular
▁collective
bie
incinn
▁varieties
mb
▁palmer
▁gem
▁athletics
▁pedro
▁centres
ijing
annel
▁administered
sburg
▁requirement
eted
▁estates
▁ware
haus
▁lodge
▁recalled
▁dissolved
▁aster
mot
rapped
techn
▁earthquake
bes
▁og
record
▁polyn
▁nights
▁buc
▁endors
▁updated
▁conjun
enda
quer
▁dialogue
aters
▁leonard
▁robot
▁necessarily
▁philosophical
▁comprom
uer
▁florence
regular
▁va
▁intense
▁ferdinand
▁wheat
six
▁syria
▁theoretical
▁helicopter
▁bren
▁nephe
▁mys
elected
▁cox
guard
▁programmes
bin
verse
▁gaz
▁reader
rav
▁fabric
lee
▁distinguish
▁gest
▁sporting
▁angels
built
▁millenn
▁survival
▁variants
▁attraction
flow
▁preservation
▁literally
▁dawn
▁manga
▁discontinued
▁destro
▁emotional
▁tear
▁prevented
▁spacecraft
▁concentrated
stock
▁burns
▁internationally
▁circular
▁thorn
phant
▁bened
▁bonus
ports
herent
▁trio
▁rocky
held
▁deer
▁crosses
▁marath
▁gothic
▁precip
had
▁fortune
▁hide
eda
▁vocalist
▁sheep
arr
ku
incinnati
▁--
▁serbia
okes
▁voices
enders
▁samples
fight
▁0000–
▁observations
aho
opy
▁informed
▁aus
▁neo
▁anglican
vas
▁waiting
mu
▁unincorporated
▁playoffs
▁politicians
eff
▁humid
▁
e
a
t
i
n
o
r
s
h
l
d
c
0
u
m
f
p
g
w
b
y
,
.
v
'
k
*
-
)
(
j
"
x
z
q
:
–
%
;
/
é
#
$
—
&
’
|
!
á
=
ó
ö
ü
í
?
”
“
+
ō
ä
2
è
ā
_
£
ç
ł
š
°
ć
а
ñ
о
ø
ú
×
ã
и
č
е
−
‘
ū
â
н
α
à
